<pad>	0
<unk>	0
<s>	0
</s>	0
▁t	-0
er	-1
▁a	-2
es	-3
en	-4
▁d	-5
os	-6
▁s	-7
▁th	-8
▁p	-9
on	-10
in	-11
▁l	-12
▁c	-13
or	-14
▁de	-15
▁m	-16
an	-17
is	-18
re	-19
▁h	-20
▁w	-21
ar	-22
as	-23
▁the	-24
el	-25
ue	-26
▁o	-27
at	-28
▁es	-29
▁n	-30
ou	-31
ci	-32
▁f	-33
▁y	-34
ad	-35
ent	-36
od	-37
al	-38
it	-39
om	-40
▁b	-41
▁q	-42
un	-43
▁el	-44
ll	-45
ed	-46
▁que	-47
▁la	-48
nd	-49
▁A	-50
▁in	-51
▁D	-52
am	-53
▁to	-54
▁of	-55
ios	-56
ic	-57
▁en	-58
id	-59
▁G	-60
ing	-61
▁is	-62
us	-63
▁v	-64
▁I	-65
ra	-66
▁T	-67
le	-68
▁un	-69
▁ha	-70
▁re	-71
▁God	-72
ro	-73
▁E	-74
▁e	-75
▁no	-76
▁and	-77
▁M	-78
▁S	-79
im	-80
▁est	-81
▁Dios	-82
▁g	-83
▁con	-84
ve	-85
▁be	-86
▁se	-87
▁you	-88
ion	-89
▁“	-90
ut	-91
ir	-92
▁P	-93
▁C	-94
em	-95
ul	-96
ill	-97
ig	-98
ente	-99
ta	-100
▁H	-101
▁Th	-102
▁com	-103
ur	-104
ec	-105
ón	-106
▁wh	-107
ay	-108
iv	-109
▁al	-110
ab	-111
tr	-112
ce	-113
do	-114
ly	-115
▁su	-116
▁that	-117
th	-118
.”	-119
▁los	-120
▁for	-121
ord	-122
res	-123
▁L	-124
ow	-125
▁par	-126
▁lo	-127
ol	-128
▁"	-129
to	-130
ver	-131
te	-132
▁(	-133
ía	-134
▁on	-135
ien	-136
ch	-137
▁will	-138
▁W	-139
ld	-140
if	-141
ere	-142
▁por	-143
est	-144
▁per	-145
▁it	-146
ith	-147
ado	-148
▁B	-149
▁Y	-150
ter	-151
ción	-152
▁N	-153
ier	-154
ás	-155
▁pro	-156
il	-157
▁are	-158
▁he	-159
▁para	-160
▁an	-161
▁las	-162
▁as	-163
▁una	-164
▁with	-165
▁1	-166
ia	-167
ful	-168
▁have	-169
."	-170
ct	-171
▁tod	-172
▁ser	-173
▁we	-174
▁this	-175
▁All	-176
▁del	-177
▁The	-178
ant	-179
de	-180
ah	-181
et	-182
st	-183
..	-184
▁not	-185
lo	-186
▁ex	-187
▁pr	-188
▁us	-189
▁tr	-190
▁ver	-191
▁me	-192
▁des	-193
▁qu	-194
ib	-195
erci	-196
▁¿	-197
▁do	-198
ple	-199
▁so	-200
ation	-201
erciful	-202
qu	-203
and	-204
▁j	-205
eric	-206
bre	-207
▁k	-208
ist	-209
ud	-210
án	-211
▁cu	-212
▁F	-213
ould	-214
”.	-215
▁He	-216
▁pue	-217
▁mis	-218
▁J	-219
▁[	-220
ht	-221
ando	-222
▁mu	-223
la	-224
go	-225
ero	-226
ici	-227
▁R	-228
▁was	-229
▁O	-230
▁le	-231
ericord	-232
se	-233
▁all	-234
▁2	-235
▁ne	-236
▁they	-237
pe	-238
▁can	-239
ess	-240
um	-241
▁Allah	-242
▁fr	-243
end	-244
▁ab	-245
bi	-246
▁Es	-247
ost	-248
▁más	-249
▁cre	-250
ke	-251
era	-252
cia	-253
ate	-254
▁sh	-255
▁man	-256
▁has	-257
ca	-258
ie	-259
ore	-260
▁pe	-261
▁And	-262
ther	-263
00	-264
ericordios	-265
én	-266
dad	-267
ight	-268
▁El	-269
ambi	-270
mente	-271
cer	-272
ido	-273
▁res	-274
idad	-275
▁como	-276
▁si	-277
amente	-278
ericordioso	-279
▁r	-280
▁am	-281
emos	-282
▁or	-283
tros	-284
ust	-285
pas	-286
mo	-287
ada	-288
ome	-289
ación	-290
▁¡	-291
oun	-292
so	-293
jo	-294
▁your	-295
io	-296
ap	-297
▁sa	-298
▁wor	-299
amos	-300
▁them	-301
▁what	-302
▁ent	-303
▁U	-304
▁ch	-305
▁kn	-306
que	-307
▁hab	-308
los	-309
▁real	-310
ect	-311
ambién	-312
ort	-313
▁who	-314
emp	-315
ame	-316
ient	-317
▁pod	-318
ive	-319
▁En	-320
ones	-321
ora	-322
▁go	-323
ople	-324
▁Merciful	-325
▁one	-326
iz	-327
ven	-328
".	-329
oso	-330
tain	-331
▁Al	-332
▁know	-333
ge	-334
▁Com	-335
▁Mis	-336
▁In	-337
▁mon	-338
▁from	-339
▁people	-340
▁é	-341
son	-342
▁at	-343
▁está	-344
ues	-345
all	-346
out	-347
▁Wh	-348
Él	-349
ces	-350
▁verdad	-351
ida	-352
▁pa	-353
▁La	-354
▁ten	-355
per	-356
▁Is	-357
cu	-358
▁st	-359
▁im	-360
▁son	-361
ity	-362
▁No	-363
ear	-364
ber	-365
▁Él	-366
ma	-367
ivo	-368
▁di	-369
ose	-370
gun	-371
ted	-372
▁también	-373
▁ag	-374
▁pre	-375
▁este	-376
▁gr	-377
▁tien	-378
...	-379
▁him	-380
▁there	-381
▁But	-382
▁mi	-383
▁his	-384
▁Misericordioso	-385
av	-386
▁It	-387
ombre	-388
co	-389
alab	-390
▁also	-391
▁person	-392
▁only	-393
one	-394
▁–	-395
ment	-396
uest	-397
▁You	-398
▁Se	-399
ica	-400
ens	-401
ies	-402
con	-403
▁ob	-404
▁pl	-405
ell	-406
▁our	-407
▁my	-408
uro	-409
encia	-410
uth	-411
▁pres	-412
ese	-413
▁ap	-414
▁would	-415
▁él	-416
ados	-417
gar	-418
▁ma	-419
▁sin	-420
▁sus	-421
▁cont	-422
▁ar	-423
▁Pero	-424
▁li	-425
ian	-426
).	-427
▁sol	-428
cl	-429
ers	-430
▁fin	-431
oug	-432
▁Most	-433
ión	-434
▁their	-435
ous	-436
pt	-437
▁We	-438
ot	-439
very	-440
ice	-441
▁-	-442
able	-443
▁but	-444
▁much	-445
oy	-446
▁esta	-447
▁want	-448
rael	-449
uer	-450
▁V	-451
▁by	-452
ech	-453
▁ti	-454
▁dis	-455
▁about	-456
port	-457
ich	-458
▁puede	-459
▁tu	-460
Th	-461
▁Compas	-462
giv	-463
▁ac	-464
pa	-465
▁more	-466
ountain	-467
thing	-468
▁sobre	-469
és	-470
ign	-471
▁some	-472
▁ve	-473
▁3	-474
ual	-475
▁say	-476
▁if	-477
▁tra	-478
▁lu	-479
ante	-480
use	-481
▁ellos	-482
▁em	-483
▁other	-484
▁ad	-485
man	-486
▁This	-487
ador	-488
▁Ch	-489
pl	-490
sion	-491
ará	-492
▁añ	-493
ún	-494
ast	-495
▁cons	-496
ife	-497
▁mountain	-498
hora	-499
▁said	-500
cr	-501
▁fa	-502
▁todo	-503
ime	-504
ath	-505
ong	-506
▁Israel	-507
art	-508
our	-509
▁te	-510
▁day	-511
▁had	-512
eces	-513
ible	-514
▁prop	-515
▁see	-516
▁sab	-517
▁mun	-518
▁hay	-519
▁like	-520
up	-521
alabra	-522
▁may	-523
▁hacer	-524
ure	-525
▁fue	-526
osotros	-527
za	-528
der	-529
ence	-530
▁when	-531
▁than	-532
▁K	-533
▁were	-534
▁todos	-535
▁part	-536
▁every	-537
ok	-538
ult	-539
ciones	-540
sel	-541
ard	-542
ales	-543
▁men	-544
▁Un	-545
fer	-546
ans	-547
reat	-548
▁act	-549
▁deb	-550
▁year	-551
▁vida	-552
ñor	-553
ac	-554
▁these	-555
▁mundo	-556
▁world	-557
▁mountains	-558
tañ	-559
▁Q	-560
ings	-561
ain	-562
▁truth	-563
▁comp	-564
vo	-565
▁cuando	-566
ólo	-567
▁As	-568
▁prom	-569
vel	-570
ino	-571
▁usted	-572
▁dif	-573
▁Por	-574
▁montañ	-575
▁now	-576
▁hum	-577
▁resp	-578
ak	-579
ba	-580
▁nuest	-581
▁«	-582
ish	-583
▁inter	-584
▁pero	-585
▁time	-586
ían	-587
▁tan	-588
▁qué	-589
▁af	-590
▁esto	-591
▁how	-592
▁cos	-593
ough	-594
▁life	-595
▁They	-596
▁tiene	-597
▁plan	-598
gu	-599
▁pos	-600
▁pued	-601
▁'	-602
ink	-603
▁día	-604
are	-605
▁4	-606
ara	-607
▁any	-608
giving	-609
▁cas	-610
cial	-611
ip	-612
ras	-613
▁aqu	-614
▁just	-615
onces	-616
ide	-617
▁Señor	-618
ble	-619
▁word	-620
▁ahora	-621
les	-622
orm	-623
▁been	-624
fore	-625
▁fe	-626
▁vez	-627
mos	-628
ever	-629
ach	-630
iento	-631
▁bel	-632
▁ot	-633
▁po	-634
tes	-635
▁eso	-636
▁bu	-637
▁cr	-638
▁19	-639
▁way	-640
▁Euro	-641
ico	-642
ire	-643
▁nosotros	-644
▁De	-645
gr	-646
▁sal	-647
echo	-648
▁For	-649
ions	-650
▁mismo	-651
▁Si	-652
▁nue	-653
no	-654
▁His	-655
tru	-656
ina	-657
▁Alá	-658
▁deci	-659
▁porque	-660
ió	-661
».	-662
▁Ab	-663
▁er	-664
▁Lord	-665
lam	-666
▁then	-667
ild	-668
▁those	-669
▁montañas	-670
▁fir	-671
ís	-672
▁5	-673
▁años	-674
ind	-675
▁vol	-676
▁human	-677
▁merciful	-678
ower	-679
sionate	-680
ise	-681
▁Compasivo	-682
ías	-683
▁pas	-684
▁misericordioso	-685
▁her	-686
▁could	-687
ine	-688
▁dijo	-689
▁need	-690
▁If	-691
▁neces	-692
cause	-693
ómo	-694
▁because	-695
▁did	-696
▁vis	-697
▁era	-698
ated	-699
ance	-700
ento	-701
ree	-702
▁again	-703
▁Re	-704
▁uno	-705
▁nos	-706
▁work	-707
▁sólo	-708
▁compas	-709
▁personas	-710
igo	-711
bar	-712
pu	-713
ely	-714
▁están	-715
▁Su	-716
▁which	-717
unt	-718
cion	-719
way	-720
aba	-721
iel	-722
▁So	-723
▁op	-724
fici	-725
▁poder	-726
▁even	-727
self	-728
▁lle	-729
▁nombre	-730
ade	-731
▁years	-732
▁20	-733
▁ra	-734
▁co	-735
Es	-736
itu	-737
jos	-738
don	-739
iendo	-740
▁On	-741
▁up	-742
ener	-743
▁hecho	-744
▁prim	-745
▁cap	-746
▁great	-747
ced	-748
▁should	-749
▁podr	-750
▁‘	-751
▁cl	-752
ham	-753
▁How	-754
pués	-755
ren	-756
▁reg	-757
unca	-758
▁cam	-759
▁gran	-760
▁entre	-761
▁ter	-762
▁don	-763
▁pla	-764
▁fam	-765
▁inf	-766
az	-767
cre	-768
ally	-769
wn	-770
ey	-771
▁There	-772
▁cada	-773
▁gra	-774
▁hombre	-775
jor	-776
▁lugar	-777
ness	-778
ations	-779
▁Palabra	-780
▁mar	-781
▁come	-782
▁belie	-783
▁ay	-784
▁algun	-785
▁bet	-786
▁tiemp	-787
empre	-788
▁Word	-789
▁new	-790
▁incl	-791
ves	-792
▁never	-793
▁think	-794
▁embar	-795
atan	-796
▁sign	-797
▁tw	-798
omb	-799
▁hel	-800
▁power	-801
▁embargo	-802
▁fuer	-803
▁hi	-804
cept	-805
par	-806
000	-807
▁many	-808
ito	-809
No	-810
po	-811
▁med	-812
▁tal	-813
▁será	-814
▁first	-815
pp	-816
▁sim	-817
▁solo	-818
▁cosas	-819
ily	-820
▁That	-821
▁otros	-822
▁serv	-823
ga	-824
ied	-825
▁lib	-826
▁yo	-827
ific	-828
▁does	-829
arn	-830
▁sí	-831
▁rel	-832
blo	-833
ace	-834
▁ev	-835
▁good	-836
▁Tod	-837
▁exist	-838
▁tiempo	-839
jer	-840
▁Est	-841
fr	-842
zón	-843
▁gu	-844
▁dos	-845
▁han	-846
▁most	-847
▁things	-848
!”	-849
▁sea	-850
entes	-851
▁Europe	-852
ug	-853
▁out	-854
▁why	-855
▁Satan	-856
▁fu	-857
▁import	-858
quier	-859
▁comm	-860
min	-861
▁Cu	-862
com	-863
ite	-864
▁pol	-865
▁very	-866
▁pueblo	-867
uso	-868
▁help	-869
ten	-870
▁exp	-871
▁Abra	-872
▁conf	-873
▁Con	-874
▁fo	-875
▁Ind	-876
▁siempre	-877
erc	-878
▁ayud	-879
▁mejor	-880
lor	-881
▁Sin	-882
▁esp	-883
ved	-884
▁ind	-885
▁nunca	-886
▁ese	-887
▁inv	-888
▁ins	-889
tern	-890
▁spe	-891
ierra	-892
other	-893
▁rep	-894
▁same	-895
ound	-896
▁br	-897
▁name	-898
ew	-899
▁sup	-900
▁two	-901
fic	-902
imos	-903
▁mat	-904
▁ya	-905
va	-906
imo	-907
ub	-908
ran	-909
▁llam	-910
▁must	-911
almente	-912
▁pra	-913
▁algo	-914
▁parte	-915
▁traba	-916
.’	-917
urn	-918
vi	-919
▁call	-920
▁cono	-921
▁6	-922
▁muy	-923
▁estos	-924
odu	-925
und	-926
ave	-927
tras	-928
▁9	-929
▁after	-930
ond	-931
▁love	-932
ary	-933
▁dem	-934
▁mill	-935
▁hace	-936
▁sido	-937
▁Esto	-938
▁después	-939
ag	-940
▁str	-941
▁todas	-942
▁ni	-943
▁gente	-944
endo	-945
▁Los	-946
▁buen	-947
▁before	-948
▁its	-949
▁decir	-950
▁10	-951
untad	-952
ene	-953
▁cual	-954
▁child	-955
▁realmente	-956
ase	-957
▁dur	-958
aron	-959
▁mom	-960
tamente	-961
ang	-962
▁nues	-963
Qu	-964
avid	-965
▁When	-966
▁necesit	-967
▁own	-968
▁habl	-969
▁menos	-970
▁entonces	-971
▁aquí	-972
▁nuestro	-973
▁Per	-974
▁happ	-975
▁Jes	-976
▁sent	-977
▁bo	-978
▁really	-979
▁jud	-980
▁Lo	-981
▁Sh	-982
ores	-983
▁Abraham	-984
ake	-985
gan	-986
▁—	-987
▁ref	-988
▁coun	-989
▁así	-990
▁here	-991
lemente	-992
▁under	-993
ks	-994
▁imp	-995
▁shall	-996
▁Compassionate	-997
▁Him	-998
▁too	-999
▁cor	-1000
▁David	-1001
▁estar	-1002
cias	-1003
▁muer	-1004
ject	-1005
▁...	-1006
].	-1007
me	-1008
▁voluntad	-1009
ons	-1010
▁Tr	-1011
▁200	-1012
▁An	-1013
▁make	-1014
▁pueden	-1015
▁def	-1016
▁viv	-1017
▁What	-1018
▁dest	-1019
▁true	-1020
red	-1021
idos	-1022
ember	-1023
▁Ver	-1024
El	-1025
▁cer	-1026
▁quier	-1027
▁she	-1028
▁ella	-1029
▁tanto	-1030
cur	-1031
▁test	-1032
▁hand	-1033
ather	-1034
▁right	-1035
icio	-1036
je	-1037
adre	-1038
▁dec	-1039
▁seg	-1040
▁mil	-1041
ender	-1042
▁nuestra	-1043
olo	-1044
▁car	-1045
▁thr	-1046
▁estas	-1047
ack	-1048
endr	-1049
▁pregun	-1050
▁cier	-1051
ents	-1052
▁7	-1053
▁over	-1054
▁ca	-1055
▁palabra	-1056
ady	-1057
contr	-1058
da	-1059
▁Cuando	-1060
▁revel	-1061
uel	-1062
▁Am	-1063
ieron	-1064
The	-1065
▁eres	-1066
cil	-1067
▁bien	-1068
▁ment	-1069
,”	-1070
En	-1071
med	-1072
▁fut	-1073
▁manera	-1074
▁end	-1075
▁ju	-1076
▁antes	-1077
▁ask	-1078
▁qui	-1079
▁había	-1080
▁país	-1081
▁hoy	-1082
orgiving	-1083
▁something	-1084
tle	-1085
ulg	-1086
▁cora	-1087
▁contra	-1088
▁believe	-1089
we	-1090
▁mí	-1091
▁hasta	-1092
▁place	-1093
▁countr	-1094
?”	-1095
br	-1096
cord	-1097
▁into	-1098
▁comple	-1099
▁prof	-1100
▁today	-1101
lt	-1102
ater	-1103
▁quer	-1104
▁mujer	-1105
▁encontr	-1106
▁amor	-1107
),	-1108
cul	-1109
adas	-1110
▁faith	-1111
▁tienen	-1112
arth	-1113
▁debe	-1114
▁made	-1115
▁podría	-1116
enta	-1117
ways	-1118
▁Ell	-1119
▁otra	-1120
▁otro	-1121
ombres	-1122
▁ú	-1123
▁.	-1124
uego	-1125
ought	-1126
▁produ	-1127
igu	-1128
▁heart	-1129
ít	-1130
ño	-1131
▁glor	-1132
ana	-1133
▁cómo	-1134
▁salv	-1135
ft	-1136
Por	-1137
▁merc	-1138
▁find	-1139
fect	-1140
▁Do	-1141
▁div	-1142
▁still	-1143
irá	-1144
▁ro	-1145
▁mo	-1146
▁tom	-1147
rect	-1148
▁always	-1149
ck	-1150
uesto	-1151
▁cond	-1152
▁dice	-1153
▁perd	-1154
ial	-1155
pir	-1156
aría	-1157
▁201	-1158
▁esa	-1159
▁Ad	-1160
iend	-1161
We	-1162
▁compasivo	-1163
ives	-1164
ition	-1165
ict	-1166
til	-1167
come	-1168
▁Rus	-1169
rec	-1170
▁ho	-1171
▁give	-1172
▁exper	-1173
▁another	-1174
be	-1175
▁ej	-1176
ical	-1177
▁proble	-1178
▁quien	-1179
atur	-1180
antes	-1181
▁deber	-1182
alabras	-1183
ulgente	-1184
pr	-1185
▁Jo	-1186
▁reci	-1187
donador	-1188
▁ún	-1189
▁Pro	-1190
▁mayor	-1191
▁estaba	-1192
ep	-1193
ér	-1194
▁cambi	-1195
▁tierra	-1196
▁through	-1197
ors	-1198
ider	-1199
La	-1200
▁Así	-1201
▁tem	-1202
▁Then	-1203
aban	-1204
▁les	-1205
▁Ent	-1206
▁famil	-1207
▁words	-1208
▁últ	-1209
▁escu	-1210
▁min	-1211
▁pens	-1212
▁Le	-1213
▁where	-1214
▁fact	-1215
▁tener	-1216
▁8	-1217
arse	-1218
arán	-1219
▁prot	-1220
mit	-1221
less	-1222
▁mor	-1223
cuer	-1224
ición	-1225
▁días	-1226
▁palabras	-1227
▁dios	-1228
▁children	-1229
ph	-1230
ars	-1231
▁wom	-1232
▁espe	-1233
act	-1234
cious	-1235
als	-1236
▁nuevo	-1237
▁Me	-1238
▁mal	-1239
▁My	-1240
íamos	-1241
ias	-1242
ecto	-1243
ighty	-1244
▁hombres	-1245
▁incluso	-1246
op	-1247
▁look	-1248
▁haber	-1249
ensa	-1250
▁last	-1251
▁trans	-1252
ates	-1253
▁pur	-1254
ience	-1255
▁against	-1256
int	-1257
▁Qu	-1258
▁get	-1259
▁ord	-1260
age	-1261
▁mod	-1262
ericordia	-1263
▁tres	-1264
▁contin	-1265
▁mucho	-1266
Merciful	-1267
▁ir	-1268
▁ext	-1269
che	-1270
lear	-1271
istian	-1272
▁gener	-1273
udad	-1274
▁int	-1275
▁ret	-1276
ura	-1277
▁sub	-1278
▁three	-1279
sw	-1280
mas	-1281
▁hijos	-1282
▁dese	-1283
▁tenemos	-1284
▁nuestros	-1285
▁aut	-1286
▁relig	-1287
iste	-1288
▁ven	-1289
ory	-1290
ario	-1291
▁prob	-1292
▁tell	-1293
▁cualquier	-1294
ry	-1295
▁sur	-1296
cep	-1297
This	-1298
▁desde	-1299
▁Cre	-1300
iudad	-1301
cio	-1302
▁tú	-1303
aciones	-1304
▁esper	-1305
dom	-1306
tos	-1307
ange	-1308
Forgiving	-1309
las	-1310
▁wr	-1311
▁well	-1312
ty	-1313
ús	-1314
ward	-1315
▁take	-1316
ile	-1317
char	-1318
▁toda	-1319
ident	-1320
▁acer	-1321
gy	-1322
▁bus	-1323
entro	-1324
▁momento	-1325
ír	-1326
cen	-1327
own	-1328
ween	-1329
▁dar	-1330
ama	-1331
▁ning	-1332
▁actual	-1333
▁Perdonador	-1334
vers	-1335
▁One	-1336
!"	-1337
gel	-1338
▁pat	-1339
▁aquel	-1340
▁St	-1341
avía	-1342
▁lit	-1343
▁Esta	-1344
▁difer	-1345
igh	-1346
llow	-1347
emplo	-1348
▁presence	-1349
ior	-1350
olut	-1351
ientos	-1352
ños	-1353
king	-1354
▁año	-1355
ger	-1356
▁da	-1357
▁such	-1358
”,	-1359
ira	-1360
▁vo	-1361
,000	-1362
cido	-1363
gment	-1364
▁corazón	-1365
▁misericordia	-1366
▁Chr	-1367
▁die	-1368
▁However	-1369
ob	-1370
▁ciudad	-1371
▁destru	-1372
▁durante	-1373
▁Clemente	-1374
▁Des	-1375
▁Gra	-1376
ready	-1377
In	-1378
una	-1379
▁hist	-1380
▁poss	-1381
▁without	-1382
xt	-1383
icos	-1384
▁Las	-1385
▁friend	-1386
▁sufici	-1387
▁También	-1388
Al	-1389
▁trabaj	-1390
▁Entonces	-1391
▁law	-1392
▁persona	-1393
▁better	-1394
▁promes	-1395
▁already	-1396
▁between	-1397
▁equ	-1398
▁presencia	-1399
?"	-1400
▁Ar	-1401
▁paz	-1402
▁contr	-1403
▁Forgiving	-1404
aven	-1405
cess	-1406
▁art	-1407
uesta	-1408
▁thing	-1409
▁ustedes	-1410
▁consider	-1411
▁each	-1412
▁muchos	-1413
uly	-1414
pirit	-1415
▁days	-1416
eg	-1417
cid	-1418
not	-1419
▁Yo	-1420
▁differ	-1421
iera	-1422
▁sou	-1423
tas	-1424
▁ley	-1425
unto	-1426
▁going	-1427
stand	-1428
▁speak	-1429
▁follow	-1430
▁muerte	-1431
izo	-1432
iene	-1433
imes	-1434
▁forma	-1435
▁fight	-1436
:1	-1437
cim	-1438
▁Tú	-1439
ement	-1440
▁able	-1441
▁being	-1442
▁death	-1443
▁peace	-1444
▁everything	-1445
igos	-1446
▁fav	-1447
",	-1448
.»	-1449
roy	-1450
the	-1451
ima	-1452
Pero	-1453
iente	-1454
▁reas	-1455
▁become	-1456
na	-1457
land	-1458
▁pray	-1459
iones	-1460
▁promise	-1461
den	-1462
▁va	-1463
vert	-1464
▁happen	-1465
▁podemos	-1466
Qué	-1467
iat	-1468
▁inde	-1469
▁nada	-1470
▁mercy	-1471
,"	-1472
▁upon	-1473
isión	-1474
▁paci	-1475
▁primer	-1476
bl	-1477
swer	-1478
▁Name	-1479
Wh	-1480
ano	-1481
▁(1	-1482
▁15	-1483
▁back	-1484
▁estado	-1485
▁understand	-1486
ielo	-1487
itar	-1488
oria	-1489
▁cum	-1490
▁rem	-1491
▁Este	-1492
▁earth	-1493
▁quiere	-1494
cas	-1495
▁Or	-1496
▁leg	-1497
oder	-1498
▁Who	-1499
▁suf	-1500
▁hizo	-1501
▁prin	-1502
ciendo	-1503
▁inform	-1504
ja	-1505
ustr	-1506
iving	-1507
▁compr	-1508
▁realidad	-1509
▁cannot	-1510
emente	-1511
▁hemos	-1512
cimiento	-1513
20	-1514
▁dr	-1515
▁ef	-1516
ning	-1517
▁says	-1518
▁camino	-1519
▁forgiv	-1520
▁puedes	-1521
▁Satanás	-1522
▁himself	-1523
ody	-1524
ular	-1525
▁Now	-1526
ierno	-1527
▁donde	-1528
▁etern	-1529
He	-1530
eno	-1531
ick	-1532
iva	-1533
icas	-1534
ving	-1535
▁fear	-1536
▁long	-1537
▁destroy	-1538
▁ide	-1539
▁creación	-1540
▁creation	-1541
▁soul	-1542
▁trat	-1543
▁11	-1544
▁Mu	-1545
ants	-1546
imon	-1547
▁use	-1548
▁segu	-1549
▁acerca	-1550
row	-1551
sted	-1552
▁sino	-1553
eness	-1554
▁To	-1555
▁done	-1556
▁peque	-1557
▁tendr	-1558
▁god	-1559
▁enem	-1560
adores	-1561
▁others	-1562
▁requ	-1563
▁might	-1564
▁Mi	-1565
▁todavía	-1566
▁especial	-1567
pos	-1568
crib	-1569
▁let	-1570
▁cour	-1571
idades	-1572
▁final	-1573
▁until	-1574
hn	-1575
▁Pr	-1576
▁Para	-1577
selves	-1578
▁ig	-1579
▁razón	-1580
imiento	-1581
eng	-1582
pre	-1583
▁otras	-1584
gin	-1585
osa	-1586
▁trav	-1587
adie	-1588
ious	-1589
▁Mar	-1590
ities	-1591
▁favor	-1592
erv	-1593
▁habr	-1594
▁sabe	-1595
▁capaz	-1596
▁created	-1597
can	-1598
▁Pres	-1599
▁veces	-1600
▁family	-1601
▁der	-1602
▁live	-1603
▁little	-1604
▁través	-1605
ird	-1606
old	-1607
▁Why	-1608
▁estamos	-1609
▁judgment	-1610
hip	-1611
▁ever	-1612
▁doing	-1613
▁result	-1614
ait	-1615
pañ	-1616
▁ba	-1617
▁vi	-1618
▁Oft	-1619
▁pec	-1620
▁exam	-1621
▁sure	-1622
ingdom	-1623
▁quest	-1624
idas	-1625
▁som	-1626
icia	-1627
▁san	-1628
éis	-1629
▁add	-1630
ifica	-1631
▁cosa	-1632
ational	-1633
▁simple	-1634
▁familia	-1635
uc	-1636
zo	-1637
vos	-1638
▁fal	-1639
▁kill	-1640
iver	-1641
▁contro	-1642
▁wanted	-1643
ista	-1644
▁feel	-1645
▁change	-1646
▁".	-1647
iliz	-1648
▁knows	-1649
▁suced	-1650
oderoso	-1651
▁certain	-1652
▁thought	-1653
.)	-1654
You	-1655
▁Can	-1656
▁Cor	-1657
▁prov	-1658
▁ayuda	-1659
▁compassionate	-1660
▁dej	-1661
▁poco	-1662
▁Jap	-1663
▁juicio	-1664
▁Indulgente	-1665
▁*	-1666
▁Russ	-1667
▁allí	-1668
▁China	-1669
▁comes	-1670
▁return	-1671
▁protect	-1672
▁18	-1673
atro	-1674
ction	-1675
▁econ	-1676
▁Verdad	-1677
▁princi	-1678
▁form	-1679
▁rece	-1680
▁Jesus	-1681
▁dentro	-1682
OR	-1683
But	-1684
ecer	-1685
▁ener	-1686
▁four	-1687
cond	-1688
▁John	-1689
▁Ahora	-1690
▁clear	-1691
▁noche	-1692
▁recib	-1693
▁12	-1694
ts	-1695
ale	-1696
any	-1697
guien	-1698
▁cult	-1699
▁misma	-1700
Cu	-1701
▁Jesús	-1702
▁hacia	-1703
▁grande	-1704
▁posible	-1705
ece	-1706
plic	-1707
▁agr	-1708
▁mes	-1709
alest	-1710
▁Ellos	-1711
▁algunos	-1712
zar	-1713
▁inst	-1714
▁among	-1715
▁segur	-1716
▁millones	-1717
ived	-1718
pend	-1719
▁came	-1720
▁clar	-1721
▁recon	-1722
▁answer	-1723
▁fueron	-1724
De	-1725
ital	-1726
▁tus	-1727
▁best	-1728
▁comun	-1729
▁defin	-1730
▁course	-1731
▁open	-1732
af	-1733
gún	-1734
ijo	-1735
▁incre	-1736
▁puedo	-1737
▁country	-1738
ín	-1739
God	-1740
▁Como	-1741
▁European	-1742
.'	-1743
lan	-1744
▁Fr	-1745
íritu	-1746
og	-1747
ena	-1748
▁Af	-1749
▁Be	-1750
ense	-1751
▁casa	-1752
▁llev	-1753
▁progr	-1754
▁segun	-1755
ós	-1756
▁á	-1757
▁red	-1758
cuerdo	-1759
▁night	-1760
▁mujeres	-1761
eca	-1762
▁ut	-1763
▁yet	-1764
▁Europa	-1765
ters	-1766
▁pare	-1767
▁light	-1768
iar	-1769
ilar	-1770
▁cast	-1771
▁dist	-1772
▁manos	-1773
▁means	-1774
▁obs	-1775
▁list	-1776
▁show	-1777
▁polít	-1778
▁cumpl	-1779
▁least	-1780
▁trabajo	-1781
▁important	-1782
por	-1783
ícul	-1784
▁Par	-1785
ments	-1786
▁Your	-1787
▁haciendo	-1788
▁blo	-1789
▁lead	-1790
portun	-1791
▁Usted	-1792
▁sería	-1793
▁perdón	-1794
▁sy	-1795
▁abs	-1796
▁luz	-1797
▁soy	-1798
entos	-1799
▁less	-1800
▁terr	-1801
ev	-1802
led	-1803
▁tot	-1804
▁seen	-1805
▁tenía	-1806
▁enough	-1807
▁nothing	-1808
iven	-1809
▁aún	-1810
▁lim	-1811
▁val	-1812
▁With	-1813
▁Americ	-1814
▁present	-1815
▁primera	-1816
lic	-1817
tar	-1818
▁Will	-1819
▁mess	-1820
▁future	-1821
▁dou	-1822
unque	-1823
▁found	-1824
▁montes	-1825
cend	-1826
ouse	-1827
▁Porque	-1828
▁different	-1829
▁Ob	-1830
▁Sal	-1831
▁She	-1832
▁alma	-1833
▁mand	-1834
▁serán	-1835
▁wants	-1836
▁Pe	-1837
▁ed	-1838
ying	-1839
ision	-1840
▁creo	-1841
▁bring	-1842
▁ejemplo	-1843
▁cin	-1844
▁var	-1845
ancia	-1846
▁obed	-1847
▁cielo	-1848
▁hands	-1849
▁cuatro	-1850
ua	-1851
▁Sí	-1852
ibut	-1853
▁Esp	-1854
▁dud	-1855
▁hear	-1856
mediat	-1857
mighty	-1858
▁secre	-1859
▁encontrar	-1860
▁forgiveness	-1861
mana	-1862
▁Una	-1863
▁anim	-1864
▁full	-1865
▁seem	-1866
▁grand	-1867
amiento	-1868
▁heaven	-1869
-1	-1870
ress	-1871
▁book	-1872
▁command	-1873
▁promesa	-1874
icen	-1875
ited	-1876
▁199	-1877
onder	-1878
idente	-1879
▁mensa	-1880
▁within	-1881
ita	-1882
▁Ro	-1883
▁away	-1884
▁propós	-1885
▁control	-1886
▁possible	-1887
iertamente	-1888
pro	-1889
▁far	-1890
ísimo	-1891
▁month	-1892
▁tienes	-1893
▁Tom	-1894
▁conv	-1895
▁next	-1896
▁decid	-1897
▁estoy	-1898
▁países	-1899
▁alguien	-1900
▁Gracious	-1901
▁supuesto	-1902
▁importante	-1903
All	-1904
emás	-1905
vern	-1906
ñana	-1907
▁Res	-1908
▁gen	-1909
▁disp	-1910
▁sigu	-1911
ientes	-1912
▁natur	-1913
wh	-1914
kes	-1915
pose	-1916
▁Más	-1917
▁fel	-1918
▁tak	-1919
ility	-1920
cy	-1921
ins	-1922
rem	-1923
ton	-1924
yes	-1925
iado	-1926
ución	-1927
▁hijo	-1928
▁rest	-1929
▁send	-1930
▁viol	-1931
▁super	-1932
▁13	-1933
▁pes	-1934
cional	-1935
▁countries	-1936
bo	-1937
▁At	-1938
▁Que	-1939
▁Qur	-1940
▁down	-1941
▁vuel	-1942
▁liber	-1943
▁perdon	-1944
Cómo	-1945
alth	-1946
ised	-1947
▁fun	-1948
▁num	-1949
▁situ	-1950
▁comen	-1951
▁women	-1952
▁princip	-1953
ye	-1954
▁sm	-1955
▁ban	-1956
▁hor	-1957
▁soci	-1958
iencia	-1959
entemente	-1960
cho	-1961
cog	-1962
▁Dr	-1963
icho	-1964
▁den	-1965
▁begin	-1966
▁exact	-1967
▁called	-1968
▁consum	-1969
▁repres	-1970
▁sta	-1971
ating	-1972
uthor	-1973
▁finan	-1974
Si	-1975
▁oc	-1976
Dios	-1977
stem	-1978
zones	-1979
▁fuera	-1980
▁recom	-1981
▁reason	-1982
fe	-1983
▁Go	-1984
anos	-1985
ecause	-1986
itness	-1987
▁commun	-1988
▁remember	-1989
cos	-1990
señ	-1991
▁ke	-1992
▁rela	-1993
▁used	-1994
▁Truth	-1995
▁muchas	-1996
It	-1997
eed	-1998
inos	-1999
▁Ever	-2000
▁kind	-2001
▁perman	-2002
▁second	-2003
ets	-2004
▁(2	-2005
eron	-2006
▁May	-2007
▁Yes	-2008
▁bene	-2009
ección	-2010
ilidad	-2011
▁accept	-2012
▁hablar	-2013
▁respuesta	-2014
aps	-2015
cal	-2016
▁cho	-2017
▁emp	-2018
▁escuch	-2019
▁record	-2020
vent	-2021
▁arm	-2022
▁ple	-2023
▁esos	-2024
▁purpose	-2025
▁significa	-2026
rar	-2027
▁Son	-2028
ently	-2029
▁play	-2030
▁wait	-2031
eramente	-2032
▁acuerdo	-2033
ugh	-2034
urch	-2035
▁yes	-2036
▁Only	-2037
▁talk	-2038
▁autor	-2039
▁given	-2040
▁cierto	-2041
▁futuro	-2042
ablemente	-2043
▁Br	-2044
ices	-2045
▁cab	-2046
▁doub	-2047
▁These	-2048
▁truly	-2049
▁beh	-2050
▁guer	-2051
ousand	-2052
▁tengo	-2053
▁indeed	-2054
▁mañana	-2055
oup	-2056
▁17	-2057
▁30	-2058
istem	-2059
▁encu	-2060
▁fire	-2061
▁rema	-2062
▁direct	-2063
▁utiliz	-2064
▁constru	-2065
▁debería	-2066
ys	-2067
▁ass	-2068
▁gracia	-2069
▁support	-2070
And	-2071
ner	-2072
▁mag	-2073
iciones	-2074
▁ayudar	-2075
▁luchar	-2076
▁reject	-2077
▁quieren	-2078
car	-2079
▁16	-2080
▁Mo	-2081
▁mismos	-2082
ER	-2083
he	-2084
▁“.	-2085
▁100	-2086
▁Todo	-2087
▁cinco	-2088
▁dicho	-2089
▁example	-2090
oss	-2091
iness	-2092
▁Sólo	-2093
ficent	-2094
▁Corán	-2095
▁propia	-2096
▁similar	-2097
cto	-2098
its	-2099
lex	-2100
▁sé	-2101
▁lar	-2102
▁tipo	-2103
▁vict	-2104
rother	-2105
▁enseñ	-2106
eración	-2107
▁strong	-2108
▁respond	-2109
▁suficiente	-2110
áp	-2111
odo	-2112
▁env	-2113
▁reve	-2114
▁saber	-2115
▁times	-2116
▁permit	-2117
▁testimon	-2118
▁verdadero	-2119
ek	-2120
mn	-2121
bel	-2122
ulf	-2123
irán	-2124
▁visto	-2125
▁único	-2126
cording	-2127
amientos	-2128
osp	-2129
▁hub	-2130
▁lie	-2131
erman	-2132
remos	-2133
▁rech	-2134
▁nueva	-2135
▁convert	-2136
▁signific	-2137
▁themselves	-2138
des	-2139
zas	-2140
▁cal	-2141
▁fre	-2142
▁envi	-2143
▁fuego	-2144
▁grace	-2145
▁separ	-2146
▁author	-2147
▁friends	-2148
▁thousand	-2149
▁“¡	-2150
▁war	-2151
▁caus	-2152
▁clos	-2153
▁ojos	-2154
▁million	-2155
▁witness	-2156
irt	-2157
▁Ex	-2158
▁Ir	-2159
▁os	-2160
▁Aqu	-2161
▁hon	-2162
ished	-2163
▁reino	-2164
▁amigos	-2165
Los	-2166
ash	-2167
roll	-2168
▁cur	-2169
▁eas	-2170
▁rev	-2171
▁sistem	-2172
▁aquellos	-2173
▁question	-2174
▁Christian	-2175
ms	-2176
ift	-2177
▁Our	-2178
▁bajo	-2179
▁sier	-2180
▁system	-2181
▁Estados	-2182
pect	-2183
▁bas	-2184
▁disc	-2185
▁orig	-2186
▁turn	-2187
▁fighting	-2188
ably	-2189
▁Eso	-2190
▁dev	-2191
▁din	-2192
▁old	-2193
▁caso	-2194
▁herman	-2195
eneficent	-2196
▁necesita	-2197
▁ciertamente	-2198
▁fá	-2199
haps	-2200
▁att	-2201
▁apoy	-2202
▁five	-2203
▁lleg	-2204
▁nadie	-2205
OS	-2206
erá	-2207
jet	-2208
▁ráp	-2209
▁city	-2210
▁fulf	-2211
▁mano	-2212
▁Every	-2213
▁since	-2214
▁econom	-2215
▁living	-2216
▁mentir	-2217
▁realiz	-2218
▁perfect	-2219
gía	-2220
ator	-2221
form	-2222
ique	-2223
▁Pue	-2224
▁niños	-2225
▁woman	-2226
▁regres	-2227
▁respons	-2228
▁actually	-2229
ES	-2230
ork	-2231
eros	-2232
▁ago	-2233
icamente	-2234
▁Because	-2235
▁mayoría	-2236
▁historia	-2237
óx	-2238
most	-2239
▁amb	-2240
▁suc	-2241
ledge	-2242
▁euro	-2243
gether	-2244
▁Tierra	-2245
▁alguna	-2246
ex	-2247
get	-2248
▁na	-2249
ides	-2250
itas	-2251
ivos	-2252
▁gan	-2253
▁else	-2254
tribut	-2255
▁enter	-2256
▁padre	-2257
▁kingdom	-2258
▁propósito	-2259
usta	-2260
▁Sus	-2261
▁ale	-2262
▁señ	-2263
arnos	-2264
▁grup	-2265
▁bless	-2266
▁dicen	-2267
▁start	-2268
▁propio	-2269
▁montaña	-2270
▁Espíritu	-2271
▁14	-2272
ians	-2273
ismo	-2274
▁cent	-2275
▁knew	-2276
icular	-2277
▁organ	-2278
▁Spirit	-2279
▁absolut	-2280
▁grandes	-2281
▁anything	-2282
ío	-2283
arlo	-2284
▁New	-2285
▁few	-2286
▁sig	-2287
▁pues	-2288
▁vivir	-2289
ientras	-2290
▁govern	-2291
bol	-2292
nos	-2293
ánd	-2294
▁both	-2295
arroll	-2296
quiera	-2297
▁medio	-2298
▁product	-2299
▁justicia	-2300
▁nuestras	-2301
▁paciencia	-2302
ato	-2303
ién	-2304
qué	-2305
▁ph	-2306
ivel	-2307
▁put	-2308
▁agre	-2309
▁keep	-2310
▁próx	-2311
uestro	-2312
▁acept	-2313
▁small	-2314
aré	-2315
▁Cr	-2316
icip	-2317
ises	-2318
▁mant	-2319
▁temp	-2320
▁told	-2321
▁deben	-2322
▁point	-2323
▁number	-2324
11	-2325
lv	-2326
▁lot	-2327
▁mos	-2328
▁Ella	-2329
▁read	-2330
▁minut	-2331
▁invest	-2332
ál	-2333
ike	-2334
istas	-2335
▁escr	-2336
▁mean	-2337
▁house	-2338
▁pract	-2339
▁somos	-2340
▁llegar	-2341
arte	-2342
irse	-2343
ures	-2344
▁mus	-2345
▁tar	-2346
▁land	-2347
▁group	-2348
▁Indeed	-2349
▁pasado	-2350
▁algunas	-2351
▁fulfill	-2352
▁Poderoso	-2353
▁everyone	-2354
dos	-2355
▁Ma	-2356
▁Mr	-2357
ting	-2358
▁gob	-2359
There	-2360
▁cuer	-2361
▁difí	-2362
▁eran	-2363
▁conse	-2364
▁libro	-2365
▁gloria	-2366
▁rechaz	-2367
▁reveal	-2368
▁encuent	-2369
▁clemente	-2370
’.	-2371
cel	-2372
omin	-2373
▁Day	-2374
▁Don	-2375
cción	-2376
▁agua	-2377
▁decl	-2378
▁ello	-2379
▁stud	-2380
▁inclu	-2381
udo	-2382
uno	-2383
▁Pre	-2384
lesia	-2385
velop	-2386
▁primero	-2387
▁verdadera	-2388
úm	-2389
anto	-2390
▁Mos	-2391
▁bat	-2392
▁off	-2393
▁fácil	-2394
▁igual	-2395
▁needs	-2396
▁hacerlo	-2397
▁desarroll	-2398
sa	-2399
cri	-2400
Esto	-2401
ists	-2402
urely	-2403
▁bend	-2404
▁pers	-2405
▁estud	-2406
▁during	-2407
▁pregunta	-2408
mis	-2409
▁25	-2410
frut	-2411
▁ado	-2412
▁err	-2413
iment	-2414
▁case	-2415
▁glory	-2416
▁luego	-2417
▁cuenta	-2418
▁ninguna	-2419
▁patience	-2420
alf	-2421
▁jo	-2422
▁“¿	-2423
ades	-2424
cent	-2425
ites	-2426
▁col	-2427
cript	-2428
ength	-2429
▁Even	-2430
▁viene	-2431
ya	-2432
elo	-2433
lob	-2434
fort	-2435
▁hope	-2436
▁hacen	-2437
▁nivel	-2438
▁/	-2439
▁ll	-2440
▁lí	-2441
▁casi	-2442
▁past	-2443
▁Todos	-2444
▁intern	-2445
▁último	-2446
▁sabemos	-2447
▁together	-2448
ono	-2449
▁big	-2450
untos	-2451
▁gust	-2452
▁nego	-2453
▁deter	-2454
▁mostr	-2455
▁offer	-2456
▁except	-2457
▁guerra	-2458
▁descend	-2459
▁oración	-2460
cup	-2461
irm	-2462
ames	-2463
ateg	-2464
iles	-2465
ills	-2466
▁enjo	-2467
▁eyes	-2468
▁save	-2469
▁wish	-2470
▁Padre	-2471
▁whole	-2472
▁Therefore	-2473
▁Beneficent	-2474
▁simplemente	-2475
▁”	-2476
ele	-2477
frica	-2478
▁Some	-2479
▁evil	-2480
▁once	-2481
▁proy	-2482
▁After	-2483
▁teach	-2484
▁Russia	-2485
▁termin	-2486
▁program	-2487
▁particular	-2488
ull	-2489
▁''	-2490
▁--	-2491
▁Hay	-2492
▁Let	-2493
▁ant	-2494
▁dir	-2495
▁food	-2496
▁Luego	-2497
▁buena	-2498
▁later	-2499
▁polit	-2500
▁única	-2501
▁parece	-2502
Se	-2503
Est	-2504
ctor	-2505
▁Mus	-2506
▁appe	-2507
▁asked	-2508
▁drink	-2509
▁leave	-2510
▁order	-2511
▁proph	-2512
▁prote	-2513
▁Unidos	-2514
▁seguridad	-2515
10	-2516
itud	-2517
itut	-2518
▁Not	-2519
▁capa	-2520
▁idea	-2521
▁mark	-2522
▁mied	-2523
▁unos	-2524
encias	-2525
▁Japan	-2526
▁gusta	-2527
▁level	-2528
▁dinero	-2529
▁origin	-2530
▁toward	-2531
▁castigo	-2532
▁servants	-2533
▁knowledge	-2534
▁indulgente	-2535
lim	-2536
ros	-2537
itos	-2538
▁Sab	-2539
▁núm	-2540
▁char	-2541
▁dead	-2542
▁Rusia	-2543
▁learn	-2544
▁water	-2545
▁saw	-2546
▁lado	-2547
▁meet	-2548
▁objet	-2549
▁punto	-2550
▁state	-2551
▁europe	-2552
▁definit	-2553
▁estaban	-2554
▁receive	-2555
▁conocimiento	-2556
Tod	-2557
ass	-2558
▁sat	-2559
▁estab	-2560
▁money	-2561
▁refle	-2562
▁sever	-2563
▁Palest	-2564
▁cristian	-2565
▁humanidad	-2566
van	-2567
▁aw	-2568
▁Jud	-2569
▁Ten	-2570
ether	-2571
▁care	-2572
▁free	-2573
uestra	-2574
▁Islam	-2575
▁activ	-2576
▁alone	-2577
▁build	-2578
▁const	-2579
▁estás	-2580
▁makes	-2581
▁miedo	-2582
rección	-2583
▁israel	-2584
],	-2585
orn	-2586
▁Say	-2587
▁omn	-2588
▁writ	-2589
▁demas	-2590
▁difícil	-2591
íos	-2592
ables	-2593
ative	-2594
cluso	-2595
lobal	-2596
▁miem	-2597
▁chang	-2598
▁anyone	-2599
▁develop	-2600
▁estable	-2601
bra	-2602
eta	-2603
rab	-2604
ste	-2605
▁mir	-2606
ically	-2607
▁deseo	-2608
▁doubt	-2609
▁spirit	-2610
▁eternal	-2611
▁forever	-2612
▁Ciertamente	-2613
▁sp	-2614
uras	-2615
▁apr	-2616
▁olv	-2617
▁duda	-2618
▁haya	-2619
▁trad	-2620
▁trust	-2621
▁desire	-2622
▁existe	-2623
ivamente	-2624
EN	-2625
ny	-2626
cla	-2627
▁Ho	-2628
▁Sa	-2629
▁éx	-2630
▁hici	-2631
▁norm	-2632
▁ofre	-2633
▁sing	-2634
▁Quien	-2635
▁reach	-2636
▁stand	-2637
▁fuerza	-2638
▁matter	-2639
▁prayer	-2640
▁recono	-2641
▁siendo	-2642
▁social	-2643
▁forgiving	-2644
óm	-2645
cum	-2646
ism	-2647
edor	-2648
▁bre	-2649
▁pot	-2650
▁pun	-2651
▁set	-2652
▁meses	-2653
▁número	-2654
▁quiero	-2655
▁mensaje	-2656
▁yourself	-2657
If	-2658
uv	-2659
nde	-2660
▁Di	-2661
▁dé	-2662
ined	-2663
▁Tal	-2664
▁estr	-2665
▁orden	-2666
▁third	-2667
▁seguro	-2668
▁semana	-2669
▁happened	-2670
odr	-2671
ply	-2672
▁esas	-2673
▁evid	-2674
▁high	-2675
▁hour	-2676
ficult	-2677
▁Obama	-2678
▁Father	-2679
▁continu	-2680
▁disfrut	-2681
▁llamado	-2682
▁organiz	-2683
▁autoridad	-2684
▁cir	-2685
arios	-2686
▁dici	-2687
▁fiel	-2688
▁nuev	-2689
▁wife	-2690
▁expect	-2691
▁quería	-2692
▁message	-2693
▁oportun	-2694
▁vosotros	-2695
át	-2696
▁24	-2697
▁ta	-2698
izás	-2699
oner	-2700
▁Are	-2701
▁sor	-2702
▁tuv	-2703
vious	-2704
▁ante	-2705
▁pass	-2706
▁reun	-2707
▁éxito	-2708
adamente	-2709
Pue	-2710
aut	-2711
ído	-2712
▁od	-2713
ónde	-2714
ature	-2715
▁obra	-2716
▁bueno	-2717
▁intent	-2718
▁Después	-2719
▁quienes	-2720
▁strength	-2721
▁certainly	-2722
ecu	-2723
idar	-2724
▁week	-2725
▁fuerte	-2726
▁cambiar	-2727
▁sistema	-2728
▁therefore	-2729
▁revelation	-2730
AS	-2731
▁[1	-2732
▁sw	-2733
body	-2734
gres	-2735
▁inm	-2736
▁Fran	-2737
▁Here	-2738
▁diez	-2739
▁fall	-2740
▁home	-2741
▁lost	-2742
▁mira	-2743
▁perf	-2744
▁algún	-2745
▁ellas	-2746
▁visit	-2747
▁pregunt	-2748
▁authority	-2749
▁difficult	-2750
uz	-2751
igr	-2752
▁50	-2753
bert	-2754
▁Sol	-2755
▁bar	-2756
▁neg	-2757
ierto	-2758
▁face	-2759
▁false	-2760
▁cuerpo	-2761
▁hearts	-2762
▁brother	-2763
▁interpre	-2764
abr	-2765
iod	-2766
▁"¿	-2767
ipot	-2768
ueno	-2769
▁ped	-2770
ament	-2771
aster	-2772
▁Thus	-2773
▁trib	-2774
▁appro	-2775
▁father	-2776
▁seguir	-2777
▁revealed	-2778
ienen	-2779
▁warn	-2780
▁quién	-2781
▁Verily	-2782
▁months	-2783
▁saying	-2784
▁gracias	-2785
▁however	-2786
▁someone	-2787
▁faithful	-2788
▁according	-2789
▁existencia	-2790
▁Misericordios	-2791
ern	-2792
mad	-2793
now	-2794
▁21	-2795
They	-2796
ines	-2797
usto	-2798
▁eat	-2799
▁obt	-2800
▁vie	-2801
Allah	-2802
▁Thou	-2803
▁amigo	-2804
▁compañ	-2805
▁perten	-2806
▁correct	-2807
▁project	-2808
▁represent	-2809
ña	-2810
gen	-2811
uci	-2812
▁Pa	-2813
▁hu	-2814
ream	-2815
olved	-2816
▁arre	-2817
▁body	-2818
▁youn	-2819
tación	-2820
▁Además	-2821
▁belong	-2822
▁volver	-2823
▁sentido	-2824
▁working	-2825
▁problema	-2826
▁existence	-2827
Oh	-2828
isf	-2829
▁198	-2830
ister	-2831
▁grow	-2832
▁main	-2833
▁mind	-2834
▁priv	-2835
▁unto	-2836
▁Earth	-2837
▁almost	-2838
▁probably	-2839
eor	-2840
jas	-2841
▁2.	-2842
echn	-2843
inar	-2844
▁hac	-2845
▁pub	-2846
▁ste	-2847
▁win	-2848
▁apro	-2849
▁ocur	-2850
▁guard	-2851
▁Surely	-2852
▁dioses	-2853
▁listen	-2854
▁member	-2855
▁though	-2856
▁Himself	-2857
▁capable	-2858
▁general	-2859
▁segundo	-2860
▁success	-2861
▁suffici	-2862
érci	-2863
ually	-2864
▁Hijo	-2865
▁opin	-2866
▁Austr	-2867
▁musul	-2868
▁punish	-2869
▁surely	-2870
ció	-2871
▁By	-2872
▁Ph	-2873
▁án	-2874
iete	-2875
ples	-2876
▁cul	-2877
▁six	-2878
▁crey	-2879
▁fund	-2880
ington	-2881
▁saben	-2882
▁comenz	-2883
▁whether	-2884
yo	-2885
▁27	-2886
istr	-2887
▁Man	-2888
▁sir	-2889
▁via	-2890
table	-2891
▁eleg	-2892
ración	-2893
▁allow	-2894
▁recog	-2895
▁share	-2896
▁tarde	-2897
▁moment	-2898
▁wonder	-2899
▁siervos	-2900
day	-2901
▁har	-2902
acter	-2903
asure	-2904
ither	-2905
▁holy	-2906
▁pien	-2907
▁alcan	-2908
▁descu	-2909
▁lives	-2910
▁creado	-2911
▁tendrá	-2912
▁última	-2913
▁justice	-2914
ashington	-2915
▁Almighty	-2916
▁interest	-2917
dic	-2918
ood	-2919
▁26	-2920
▁Tu	-2921
▁Gre	-2922
▁fru	-2923
▁mur	-2924
▁pel	-2925
▁esca	-2926
▁cambio	-2927
▁suffer	-2928
▁demasiado	-2929
3)	-2930
RA	-2931
ik	-2932
ush	-2933
trás	-2934
▁Yet	-2935
ately	-2936
ibles	-2937
▁Solo	-2938
▁Those	-2939
▁habrá	-2940
▁Muslim	-2941
▁Washington	-2942
▁revelación	-2943
ety	-2944
eign	-2945
kind	-2946
▁Just	-2947
▁demo	-2948
▁Creat	-2949
▁equip	-2950
▁maybe	-2951
▁young	-2952
▁ángel	-2953
▁agrade	-2954
▁create	-2955
▁recuer	-2956
▁interna	-2957
▁morning	-2958
▁queremos	-2959
▁solamente	-2960
3.	-2961
her	-2962
oud	-2963
▁fl	-2964
Este	-2965
alia	-2966
anza	-2967
osen	-2968
▁Ham	-2969
▁Nor	-2970
▁Pol	-2971
▁allá	-2972
▁gave	-2973
▁Reino	-2974
▁extra	-2975
▁works	-2976
▁declar	-2977
▁report	-2978
▁pequeño	-2979
ON	-2980
lar	-2981
mer	-2982
▁arr	-2983
▁sto	-2984
▁imag	-2985
▁move	-2986
▁pron	-2987
▁sacr	-2988
▁vers	-2989
▁expla	-2990
▁nation	-2991
▁period	-2992
▁prepar	-2993
▁continue	-2994
▁particip	-2995
▁President	-2996
▁probablemente	-2997
ne	-2998
▁,	-2999
▁Ju	-3000
▁Mich	-3001
▁total	-3002
▁German	-3003
▁satisf	-3004
▁greater	-3005
As	-3006
ona	-3007
book	-3008
edad	-3009
iero	-3010
ieve	-3011
isto	-3012
ught	-3013
▁Mon	-3014
▁dig	-3015
▁sufr	-3016
▁enjoy	-3017
▁gives	-3018
▁grupo	-3019
▁mencion	-3020
▁patient	-3021
▁gobierno	-3022
OD	-3023
gas	-3024
....	-3025
pace	-3026
▁Car	-3027
▁Nue	-3028
cover	-3029
where	-3030
▁Jack	-3031
▁Well	-3032
▁dado	-3033
▁logr	-3034
▁qued	-3035
▁habit	-3036
▁habla	-3037
▁thanks	-3038
▁government	-3039
aco	-3040
▁pay	-3041
cient	-3042
embre	-3043
▁luch	-3044
hammad	-3045
▁heard	-3046
▁señal	-3047
▁esposa	-3048
▁determin	-3049
▁experience	-3050
▁presidente	-3051
Lo	-3052
ORD	-3053
ify	-3054
oma	-3055
viv	-3056
Esta	-3057
atch	-3058
imin	-3059
irst	-3060
▁Jew	-3061
▁Put	-3062
▁Rec	-3063
ified	-3064
ivers	-3065
▁intr	-3066
▁claro	-3067
▁comer	-3068
▁manif	-3069
▁pesar	-3070
▁señor	-3071
▁techn	-3072
▁Nombre	-3073
▁energy	-3074
▁talking	-3075
éd	-3076
ral	-3077
▁Ac	-3078
ivid	-3079
▁Wor	-3080
▁got	-3081
▁lik	-3082
▁tre	-3083
▁firm	-3084
▁ones	-3085
▁sense	-3086
merciful	-3087
▁describ	-3088
▁mention	-3089
▁religión	-3090
ank	-3091
lah	-3092
tad	-3093
▁40	-3094
gard	-3095
ount	-3096
▁Dan	-3097
▁Fin	-3098
▁pud	-3099
▁sex	-3100
▁sue	-3101
aleza	-3102
ances	-3103
ument	-3104
▁hora	-3105
▁hund	-3106
▁added	-3107
▁demás	-3108
▁hills	-3109
▁refer	-3110
olution	-3111
▁humano	-3112
▁nación	-3113
▁observ	-3114
▁univer	-3115
▁industr	-3116
▁podrían	-3117
▁problem	-3118
▁hablando	-3119
▁mientras	-3120
▁promises	-3121
5.	-3122
AN	-3123
úbl	-3124
just	-3125
ecess	-3126
icios	-3127
▁Geor	-3128
▁Have	-3129
▁espa	-3130
▁whom	-3131
▁angel	-3132
▁seems	-3133
▁tenido	-3134
▁American	-3135
▁escuchar	-3136
▁religion	-3137
Com	-3138
ria	-3139
ulo	-3140
atos	-3141
isis	-3142
▁abr	-3143
ículo	-3144
▁Face	-3145
▁busc	-3146
▁niño	-3147
though	-3148
▁conta	-3149
▁decis	-3150
▁estad	-3151
▁mother	-3152
▁recogn	-3153
▁single	-3154
▁energía	-3155
▁humanos	-3156
▁individ	-3157
▁nations	-3158
▁diciendo	-3159
▁infierno	-3160
▁community	-3161
for	-3162
▁ah	-3163
bros	-3164
ceso	-3165
iere	-3166
cidos	-3167
icion	-3168
▁cost	-3169
▁expl	-3170
▁sins	-3171
▁crear	-3172
▁enfer	-3173
▁using	-3174
▁aunque	-3175
▁correc	-3176
▁mentira	-3177
ize	-3178
▁1.	-3179
eras	-3180
ivas	-3181
ship	-3182
ural	-3183
▁Ser	-3184
▁dio	-3185
▁ign	-3186
▁sel	-3187
▁van	-3188
Quién	-3189
bamos	-3190
cidad	-3191
▁Much	-3192
▁thank	-3193
▁recomp	-3194
▁compart	-3195
▁finally	-3196
▁mankind	-3197
▁special	-3198
▁inmediat	-3199
▁relación	-3200
▁diferentes	-3201
ges	-3202
▁EU	-3203
▁Of	-3204
What	-3205
inas	-3206
▁Has	-3207
antos	-3208
▁Plan	-3209
▁deal	-3210
▁half	-3211
▁mult	-3212
▁path	-3213
▁prue	-3214
▁soon	-3215
aremos	-3216
▁creer	-3217
▁behind	-3218
▁chosen	-3219
▁Incluso	-3220
▁Whoever	-3221
▁naciones	-3222
▁promesas	-3223
▁diferente	-3224
▁oportunidad	-3225
▁suficientemente	-3226
gg	-3227
ove	-3228
ogle	-3229
▁Ira	-3230
▁det	-3231
echos	-3232
▁gift	-3233
▁disap	-3234
▁excep	-3235
▁ident	-3236
▁known	-3237
▁resur	-3238
▁while	-3239
▁coming	-3240
▁omnipot	-3241
▁problemas	-3242
'.	-3243
alk	-3244
▁Oh	-3245
ania	-3246
▁196	-3247
▁Tur	-3248
▁nor	-3249
orrow	-3250
▁Comm	-3251
▁coll	-3252
▁didn	-3253
▁beaut	-3254
▁desap	-3255
▁domin	-3256
▁story	-3257
▁around	-3258
▁debido	-3259
▁demand	-3260
▁effect	-3261
▁escrib	-3262
▁establ	-3263
▁ningún	-3264
▁remain	-3265
▁Creator	-3266
▁Facebook	-3267
▁political	-3268
▁completamente	-3269
▁z	-3270
▁Sw	-3271
▁má	-3272
▁pap	-3273
ieran	-3274
▁Escr	-3275
▁Iran	-3276
▁cuán	-3277
▁obey	-3278
atever	-3279
▁Gener	-3280
▁siete	-3281
▁taken	-3282
▁Robert	-3283
▁longer	-3284
▁Creador	-3285
▁independ	-3286
▁corazones	-3287
▁relations	-3288
!)	-3289
My	-3290
sta	-3291
endrá	-3292
▁none	-3293
▁side	-3294
▁ways	-3295
▁public	-3296
▁personal	-3297
▁trabajar	-3298
▁salvación	-3299
EA	-3300
Un	-3301
ps	-3302
gra	-3303
▁Co	-3304
▁ru	-3305
acob	-3306
ully	-3307
▁enc	-3308
▁mot	-3309
▁preo	-3310
▁vino	-3311
▁Japón	-3312
▁concl	-3313
▁often	-3314
▁sabes	-3315
▁seven	-3316
rededor	-3317
▁design	-3318
▁estará	-3319
▁health	-3320
▁reality	-3321
▁powerful	-3322
▁comunidad	-3323
.]	-3324
cra	-3325
▁Tw	-3326
▁bl	-3327
▁beb	-3328
▁dep	-3329
ounid	-3330
▁Alex	-3331
▁Cada	-3332
▁Creo	-3333
▁fron	-3334
▁frut	-3335
▁gods	-3336
▁near	-3337
▁cause	-3338
▁polic	-3339
▁tomar	-3340
▁Intern	-3341
▁concer	-3342
▁repent	-3343
▁financi	-3344
▁perhaps	-3345
▁últimos	-3346
▁miembros	-3347
▁punishment	-3348
▁testimonio	-3349
▁international	-3350
1.	-3351
:5	-3352
▁É	-3353
ony	-3354
▁33	-3355
▁id	-3356
▁ama	-3357
ianza	-3358
itual	-3359
▁Adam	-3360
▁news	-3361
▁oper	-3362
▁seis	-3363
▁star	-3364
▁dream	-3365
olución	-3366
▁Google	-3367
▁ejérci	-3368
▁habría	-3369
▁simply	-3370
▁towards	-3371
▁Muhammad	-3372
▁salvation	-3373
ha	-3374
él	-3375
lig	-3376
▁28	-3377
▁Ag	-3378
ased	-3379
enci	-3380
▁tel	-3381
fully	-3382
ional	-3383
jeron	-3384
ortal	-3385
terno	-3386
truct	-3387
▁happy	-3388
▁libre	-3389
▁speci	-3390
▁includ	-3391
▁medida	-3392
▁necess	-3393
▁templo	-3394
▁debemos	-3395
▁reasons	-3396
▁visible	-3397
▁política	-3398
▁diferencia	-3399
2]	-3400
Cre	-3401
Sab	-3402
ler	-3403
raz	-3404
▁22	-3405
alla	-3406
cómo	-3407
▁Jer	-3408
▁Sum	-3409
▁imm	-3410
adres	-3411
▁Arab	-3412
▁LORD	-3413
▁dark	-3414
▁desp	-3415
▁easy	-3416
▁hard	-3417
▁Jacob	-3418
▁estre	-3419
▁short	-3420
ospital	-3421
▁Christ	-3422
▁Script	-3423
▁church	-3424
▁conocer	-3425
forgiving	-3426
▁verdaderamente	-3427
Is	-3428
ij	-3429
aza	-3430
ided	-3431
ires	-3432
ized	-3433
osos	-3434
▁Hab	-3435
▁Sir	-3436
▁ann	-3437
▁fil	-3438
▁sit	-3439
plied	-3440
▁cree	-3441
▁puer	-3442
▁arrep	-3443
▁limit	-3444
▁loves	-3445
▁wrong	-3446
▁compet	-3447
▁empres	-3448
▁nuevos	-3449
▁interes	-3450
▁require	-3451
▁respecto	-3452
▁estadounid	-3453
ét	-3454
cle	-3455
men	-3456
▁"¡	-3457
iful	-3458
▁Holy	-3459
▁ador	-3460
▁ases	-3461
▁hará	-3462
▁miles	-3463
▁podía	-3464
▁sigue	-3465
▁entire	-3466
▁hubiera	-3467
▁pecados	-3468
▁recibir	-3469
mediately	-3470
▁investig	-3471
▁especially	-3472
2.	-3473
Yo	-3474
ala	-3475
ison	-3476
▁ach	-3477
▁corr	-3478
▁horr	-3479
▁left	-3480
▁tuvo	-3481
▁lejos	-3482
▁líder	-3483
▁pueda	-3484
▁vamos	-3485
▁Church	-3486
▁States	-3487
▁explic	-3488
▁market	-3489
▁derecho	-3490
▁gracious	-3491
▁gustaría	-3492
▁proyecto	-3493
▁alrededor	-3494
▁Gu	-3495
▁Abs	-3496
▁Ask	-3497
▁fra	-3498
▁vac	-3499
icult	-3500
▁stay	-3501
▁team	-3502
▁accom	-3503
▁prior	-3504
▁prove	-3505
▁promet	-3506
▁funcion	-3507
▁razones	-3508
▁worship	-3509
▁US	-3510
isés	-3511
itor	-3512
ried	-3513
tado	-3514
▁mer	-3515
angre	-3516
ativa	-3517
ighte	-3518
ítulo	-3519
▁Many	-3520
▁acep	-3521
▁trem	-3522
idores	-3523
▁cerca	-3524
▁condu	-3525
▁juego	-3526
▁laugh	-3527
▁mater	-3528
▁treat	-3529
▁needed	-3530
▁Kingdom	-3531
▁necesitamos	-3532
pan	-3533
vail	-3534
▁Día	-3535
▁Fue	-3536
▁vot	-3537
▁West	-3538
▁elec	-3539
▁entr	-3540
▁went	-3541
etimes	-3542
▁above	-3543
▁resto	-3544
▁salvar	-3545
▁finalmente	-3546
▁especialmente	-3547
of	-3548
.’”	-3549
Rah	-3550
ael	-3551
gos	-3552
▁Gr	-3553
ecut	-3554
ífic	-3555
▁Deb	-3556
▁More	-3557
▁Paul	-3558
▁modo	-3559
itions	-3560
▁dejar	-3561
▁llama	-3562
antidad	-3563
▁People	-3564
▁United	-3565
▁nuevas	-3566
▁natural	-3567
▁character	-3568
DA	-3569
So	-3570
▁:	-3571
ned	-3572
▁Ha	-3573
▁Ya	-3574
etas	-3575
▁acc	-3576
▁fur	-3577
▁juz	-3578
▁sil	-3579
ienes	-3580
▁seek	-3581
▁mente	-3582
▁temor	-3583
▁Heaven	-3584
▁alguno	-3585
▁expres	-3586
▁pensar	-3587
▁brought	-3588
▁benefici	-3589
▁preguntas	-3590
▁sufficient	-3591
▁exactamente	-3592
▁immediately	-3593
5,	-3594
IS	-3595
Sí	-3596
▁Ig	-3597
▁UE	-3598
aria	-3599
▁Cam	-3600
▁Cap	-3601
▁Lib	-3602
▁Sec	-3603
▁ira	-3604
▁voy	-3605
gunos	-3606
ondad	-3607
▁fals	-3608
▁sour	-3609
▁causa	-3610
▁close	-3611
▁madre	-3612
▁comien	-3613
▁tenían	-3614
▁tercer	-3615
▁destino	-3616
▁leaders	-3617
▁looking	-3618
▁entender	-3619
-2	-3620
[1	-3621
ea	-3622
gó	-3623
my	-3624
oh	-3625
IOS	-3626
irl	-3627
áct	-3628
▁Te	-3629
ages	-3630
ners	-3631
rbol	-3632
▁Bel	-3633
▁Ese	-3634
▁Vol	-3635
▁sun	-3636
chool	-3637
▁adopt	-3638
▁blood	-3639
▁error	-3640
▁secur	-3641
▁Moisés	-3642
▁entrar	-3643
▁itself	-3644
▁secret	-3645
cionales	-3646
▁escrito	-3647
▁esperar	-3648
▁prophet	-3649
▁business	-3650
▁decisión	-3651
▁greatest	-3652
▁trabajando	-3653
TE	-3654
ban	-3655
hib	-3656
▁NO	-3657
▁Uno	-3658
▁try	-3659
▁Cons	-3660
▁fort	-3661
▁perí	-3662
▁Estos	-3663
▁Estoy	-3664
▁sober	-3665
▁surpr	-3666
▁killed	-3667
▁making	-3668
▁sangre	-3669
ighteous	-3670
▁espacio	-3671
▁several	-3672
▁waiting	-3673
▁0	-3674
arl	-3675
ics	-3676
ley	-3677
▁Bo	-3678
▁Im	-3679
▁pá	-3680
.000	-3681
fuer	-3682
side	-3683
▁mit	-3684
▁sum	-3685
▁From	-3686
▁Life	-3687
▁empe	-3688
▁Nunca	-3689
▁World	-3690
▁equipo	-3691
▁global	-3692
▁rápido	-3693
▁hundred	-3694
▁mercado	-3695
▁discover	-3696
▁security	-3697
▁protección	-3698
5]	-3699
gip	-3700
▁sk	-3701
gypt	-3702
izar	-3703
▁Did	-3704
▁Hoy	-3705
▁buy	-3706
▁joy	-3707
▁mov	-3708
manes	-3709
▁comb	-3710
▁creó	-3711
▁dije	-3712
▁inno	-3713
▁sean	-3714
▁took	-3715
▁usar	-3716
ements	-3717
pecial	-3718
▁Bueno	-3719
▁Putin	-3720
▁forth	-3721
▁matar	-3722
▁olvid	-3723
▁commit	-3724
▁discus	-3725
▁nature	-3726
▁partes	-3727
▁exactly	-3728
▁acciones	-3729
▁libertad	-3730
▁objetivo	-3731
▁servicio	-3732
▁siguiente	-3733
▁relationship	-3734
AL	-3735
▁29	-3736
▁job	-3737
▁tor	-3738
▁voz	-3739
▁Salv	-3740
▁conm	-3741
▁fail	-3742
▁volv	-3743
▁Egypt	-3744
▁Moses	-3745
▁Where	-3746
▁becom	-3747
▁leyes	-3748
▁ready	-3749
▁space	-3750
▁voice	-3751
mission	-3752
▁menudo	-3753
▁myself	-3754
▁palest	-3755
▁pronto	-3756
▁respon	-3757
▁reward	-3758
▁convier	-3759
▁hermano	-3760
▁segunda	-3761
▁Nosotros	-3762
▁Palestin	-3763
▁decision	-3764
▁mantener	-3765
▁opportun	-3766
▁rejected	-3767
▁terrible	-3768
▁responder	-3769
▁resultado	-3770
▁experiment	-3771
:2	-3772
fa	-3773
▁31	-3774
▁Ap	-3775
illa	-3776
ándo	-3777
▁San	-3778
▁adv	-3779
▁rad	-3780
▁rul	-3781
enses	-3782
▁Aquí	-3783
▁York	-3784
▁virt	-3785
amento	-3786
terior	-3787
▁freed	-3788
▁legal	-3789
▁morir	-3790
▁salud	-3791
▁sight	-3792
▁árbol	-3793
▁altern	-3794
▁appear	-3795
▁forget	-3796
▁invent	-3797
▁regard	-3798
▁sacrif	-3799
▁complet	-3800
▁convers	-3801
▁dijeron	-3802
▁testigo	-3803
▁mandamientos	-3804
AR	-3805
Ell	-3806
ged	-3807
jar	-3808
▁Ud	-3809
▁bad	-3810
▁curr	-3811
▁esté	-3812
▁lies	-3813
encial	-3814
▁apoyo	-3815
▁según	-3816
▁crisis	-3817
▁having	-3818
▁clearly	-3819
▁período	-3820
▁service	-3821
▁confianza	-3822
▁naturaleza	-3823
▁protection	-3824
50	-3825
7.	-3826
9.	-3827
Re	-3828
alo	-3829
ata	-3830
cis	-3831
tra	-3832
▁(3	-3833
ches	-3834
idel	-3835
yond	-3836
▁Bla	-3837
▁rey	-3838
▁hell	-3839
uclear	-3840
▁Maybe	-3841
▁Pregun	-3842
▁beyond	-3843
▁detrás	-3844
▁normal	-3845
▁Michael	-3846
▁mejores	-3847
▁programa	-3848
▁esperanza	-3849
▁questions	-3850
▁situación	-3851
):	-3852
8,	-3853
éc	-3854
Ten	-3855
ids	-3856
▁SE	-3857
olog	-3858
▁Mal	-3859
▁rec	-3860
▁públ	-3861
▁rele	-3862
▁Aquel	-3863
▁medic	-3864
▁mitad	-3865
▁saved	-3866
▁serve	-3867
▁Daniel	-3868
▁buenas	-3869
▁entend	-3870
▁perder	-3871
▁iglesia	-3872
▁original	-3873
▁siquiera	-3874
:3	-3875
li	-3876
uf	-3877
Yes	-3878
enda	-3879
para	-3880
ster	-3881
vant	-3882
▁Ste	-3883
▁cla	-3884
▁Dijo	-3885
▁anun	-3886
▁tras	-3887
odemos	-3888
▁Revel	-3889
▁apare	-3890
▁cuest	-3891
▁medit	-3892
▁oblig	-3893
▁rebel	-3894
vereign	-3895
▁Aunque	-3896
▁esfuer	-3897
▁juntos	-3898
▁propos	-3899
▁terror	-3900
▁muertos	-3901
▁profeta	-3902
6.	-3903
How	-3904
band	-3905
cima	-3906
oper	-3907
▁Bar	-3908
▁Dec	-3909
▁Med	-3910
▁ahí	-3911
▁due	-3912
▁won	-3913
ordin	-3914
rimon	-3915
▁base	-3916
▁king	-3917
▁Today	-3918
▁ignor	-3919
▁prueba	-3920
▁speaks	-3921
▁comerci	-3922
▁cumplir	-3923
▁ninguno	-3924
▁perdona	-3925
▁respect	-3926
▁serious	-3927
▁animales	-3928
▁poderoso	-3929
▁tomorrow	-3930
▁situation	-3931
ert	-3932
ilt	-3933
mar	-3934
íso	-3935
cado	-3936
▁rob	-3937
▁Irán	-3938
▁Resp	-3939
▁died	-3940
▁grat	-3941
▁walk	-3942
▁Proph	-3943
▁creen	-3944
▁sorpr	-3945
▁vista	-3946
plement	-3947
▁efecto	-3948
▁electr	-3949
▁humana	-3950
▁llevar	-3951
▁rather	-3952
idamente	-3953
▁contigo	-3954
▁hacemos	-3955
▁hicieron	-3956
▁creyentes	-3957
abe	-3958
agr	-3959
bor	-3960
bro	-3961
olu	-3962
▁TH	-3963
cing	-3964
echa	-3965
▁age	-3966
▁jue	-3967
▁jug	-3968
▁pal	-3969
yendo	-3970
▁dirá	-3971
cident	-3972
esides	-3973
▁demos	-3974
▁enemy	-3975
▁llega	-3976
▁regul	-3977
▁sabía	-3978
▁venir	-3979
uestros	-3980
▁compan	-3981
▁destin	-3982
▁Iglesia	-3983
▁conmigo	-3984
▁servant	-3985
▁proteger	-3986
▁beautiful	-3987
▁financial	-3988
▁necesidad	-3989
▁Christians	-3990
▁Israelites	-3991
▁cristianos	-3992
▁individual	-3993
1,	-3994
by	-3995
íf	-3996
!”.	-3997
Hay	-3998
jes	-3999
kra	-4000
emen	-4001
erve	-4002
icle	-4003
mite	-4004
▁Law	-4005
▁iss	-4006
Every	-4007
adise	-4008
ences	-4009
oseph	-4010
▁2014	-4011
▁Part	-4012
▁alim	-4013
▁atta	-4014
▁deny	-4015
▁espir	-4016
▁obras	-4017
▁santo	-4018
olvedor	-4019
▁Africa	-4020
▁Forgiv	-4021
▁advert	-4022
▁choose	-4023
▁eterno	-4024
▁Russian	-4025
▁written	-4026
▁arrepent	-4027
▁destroys	-4028
▁Absolvedor	-4029
9)	-4030
ix	-4031
ilo	-4032
ium	-4033
uvo	-4034
ceed	-4035
ecta	-4036
eral	-4037
undo	-4038
imate	-4039
itude	-4040
venes	-4041
▁camb	-4042
▁excl	-4043
▁girl	-4044
▁hate	-4045
▁seas	-4046
▁sold	-4047
▁stop	-4048
ificar	-4049
▁First	-4050
▁James	-4051
▁abund	-4052
▁docum	-4053
▁instr	-4054
▁judge	-4055
▁junto	-4056
▁ocurr	-4057
ibility	-4058
rection	-4059
▁battle	-4060
▁conven	-4061
▁equivo	-4062
▁eterna	-4063
▁nuclear	-4064
▁pequeña	-4065
▁quieres	-4066
▁desapare	-4067
▁presente	-4068
▁promised	-4069
▁righteous	-4070
▁sovereign	-4071
▁espiritual	-4072
5)	-4073
LL	-4074
xas	-4075
▁Sr	-4076
ases	-4077
aste	-4078
came	-4079
ency	-4080
ican	-4081
poco	-4082
uary	-4083
▁500	-4084
▁Col	-4085
▁Har	-4086
▁Joe	-4087
▁Jos	-4088
▁Lot	-4089
▁arg	-4090
▁hus	-4091
ortun	-4092
▁Does	-4093
▁Iraq	-4094
▁[...	-4095
▁remo	-4096
▁India	-4097
▁beber	-4098
▁horas	-4099
▁inici	-4100
▁magic	-4101
▁marav	-4102
rimonio	-4103
viously	-4104
▁bondad	-4105
▁económ	-4106
▁especi	-4107
▁husband	-4108
▁process	-4109
▁completely	-4110
-3	-4111
IN	-4112
ih	-4113
»,	-4114
▁23	-4115
▁60	-4116
▁bit	-4117
▁sla	-4118
▁Ukra	-4119
▁cele	-4120
▁laws	-4121
▁pasa	-4122
ampoco	-4123
venant	-4124
▁dirig	-4125
▁largo	-4126
▁lista	-4127
▁local	-4128
▁quick	-4129
▁Mighty	-4130
▁became	-4131
▁comida	-4132
▁cultiv	-4133
▁inside	-4134
▁please	-4135
▁belongs	-4136
▁militar	-4137
▁willing	-4138
▁evidence	-4139
▁contrario	-4140
▁mentioned	-4141
▁israelitas	-4142
lu	-4143
▁Je	-4144
▁jó	-4145
arác	-4146
cios	-4147
uman	-4148
▁194	-4149
▁Ale	-4150
▁GOD	-4151
▁Jan	-4152
▁Ley	-4153
▁Som	-4154
▁pid	-4155
alian	-4156
mania	-4157
▁DIOS	-4158
▁Jews	-4159
▁dign	-4160
▁weak	-4161
uestas	-4162
▁Desde	-4163
▁ideas	-4164
▁lived	-4165
▁práct	-4166
▁rique	-4167
▁vidas	-4168
arácter	-4169
▁France	-4170
▁espera	-4171
▁object	-4172
▁prohib	-4173
▁Abraxas	-4174
▁estrell	-4175
▁freedom	-4176
▁obtener	-4177
▁practice	-4178
▁definitely	-4179
▁internacional	-4180
▁u	-4181
els	-4182
ret	-4183
une	-4184
▁48	-4185
▁ty	-4186
iate	-4187
nect	-4188
ourn	-4189
rown	-4190
soci	-4191
work	-4192
xico	-4193
▁Min	-4194
▁cri	-4195
▁pop	-4196
▁ris	-4197
▁rus	-4198
Ahora	-4199
itary	-4200
rench	-4201
▁actu	-4202
▁enfr	-4203
▁haga	-4204
▁poor	-4205
▁thus	-4206
ential	-4207
ention	-4208
icidad	-4209
▁Nadie	-4210
▁apart	-4211
curidad	-4212
▁cuanto	-4213
▁quizás	-4214
▁company	-4215
▁demostr	-4216
▁excepto	-4217
▁happens	-4218
▁members	-4219
▁carácter	-4220
▁deberían	-4221
▁maravill	-4222
▁necesitan	-4223
▁pertenece	-4224
▁claramente	-4225
▁experiencia	-4226
AT	-4227
ram	-4228
íes	-4229
ñas	-4230
Cuán	-4231
That	-4232
arch	-4233
enez	-4234
▁ata	-4235
▁boy	-4236
▁mas	-4237
▁ton	-4238
pared	-4239
▁adel	-4240
▁cabe	-4241
▁diab	-4242
▁goes	-4243
▁head	-4244
▁term	-4245
atures	-4246
ención	-4247
ituras	-4248
▁aplic	-4249
▁demon	-4250
▁espec	-4251
▁fruit	-4252
▁inten	-4253
▁resta	-4254
▁shown	-4255
▁antigu	-4256
▁encima	-4257
▁habían	-4258
▁places	-4259
▁prefer	-4260
▁states	-4261
▁trying	-4262
▁Nuestro	-4263
▁informe	-4264
▁jóvenes	-4265
▁proceso	-4266
▁darkness	-4267
▁received	-4268
▁difference	-4269
3]	-4270
Mi	-4271
US	-4272
ela	-4273
ped	-4274
écn	-4275
▁3.	-4276
▁IS	-4277
▁Po	-4278
arme	-4279
gría	-4280
imen	-4281
stru	-4282
uros	-4283
▁Dis	-4284
▁gar	-4285
▁veo	-4286
estra	-4287
isten	-4288
▁sost	-4289
▁stat	-4290
▁sust	-4291
aturas	-4292
▁conqu	-4293
▁decre	-4294
▁desaf	-4295
▁dónde	-4296
▁parec	-4297
▁tales	-4298
▁aprend	-4299
▁exists	-4300
▁tempor	-4301
▁actions	-4302
▁batalla	-4303
▁comprar	-4304
▁contact	-4305
▁enemigo	-4306
▁started	-4307
▁believed	-4308
▁victoria	-4309
▁Australia	-4310
▁principio	-4311
▁desarrollo	-4312
7)	-4313
rá	-4314
óg	-4315
Cor	-4316
gua	-4317
ibu	-4318
▁45	-4319
▁70	-4320
▁Cl	-4321
▁Lu	-4322
▁Ne	-4323
When	-4324
iron	-4325
irth	-4326
itán	-4327
tead	-4328
well	-4329
▁197	-4330
▁Dur	-4331
▁Esa	-4332
▁Jon	-4333
▁Rem	-4334
▁Rey	-4335
▁air	-4336
▁mem	-4337
▁pob	-4338
belie	-4339
odría	-4340
▁Mary	-4341
▁dise	-4342
▁safe	-4343
▁Santo	-4344
▁Truly	-4345
▁escla	-4346
▁mista	-4347
▁watch	-4348
ificado	-4349
▁Quiero	-4350
▁seeing	-4351
▁vendrá	-4352
ibilidad	-4353
imientos	-4354
▁America	-4355
▁consecu	-4356
▁instead	-4357
▁introdu	-4358
▁minutos	-4359
eraciones	-4360
▁capacidad	-4361
▁encuentra	-4362
▁implement	-4363
▁necessary	-4364
7,	-4365
Me	-4366
ám	-4367
ór	-4368
▁?	-4369
Alá	-4370
ibl	-4371
iga	-4372
ude	-4373
▁Ca	-4374
atic	-4375
ecen	-4376
idur	-4377
iría	-4378
pero	-4379
ques	-4380
▁Isa	-4381
▁ill	-4382
▁sho	-4383
▁veh	-4384
anger	-4385
apter	-4386
iante	-4387
ively	-4388
riage	-4389
▁Asia	-4390
▁Mill	-4391
▁Sumo	-4392
▁hold	-4393
▁obst	-4394
iduría	-4395
▁Nueva	-4396
▁[...]	-4397
▁honor	-4398
▁moral	-4399
▁pagar	-4400
▁posit	-4401
▁judíos	-4402
▁remains	-4403
▁subject	-4404
▁ángeles	-4405
▁complete	-4406
▁ejército	-4407
▁national	-4408
▁creatures	-4409
▁considered	-4410
▁established	-4411
!]	-4412
9,	-4413
IC	-4414
énd	-4415
▁(1)	-4416
▁jur	-4417
araoh	-4418
▁Like	-4419
▁forg	-4420
▁peor	-4421
▁resc	-4422
▁room	-4423
atorio	-4424
▁Their	-4425
▁aband	-4426
▁invit	-4427
▁piens	-4428
▁tenga	-4429
▁compar	-4430
▁estudi	-4431
▁histor	-4432
▁sentir	-4433
▁throne	-4434
▁varios	-4435
▁Estamos	-4436
▁Gracias	-4437
▁Mountain	-4438
▁economic	-4439
▁hermanos	-4440
▁sociedad	-4441
▁specific	-4442
▁whatever	-4443
▁criaturas	-4444
▁fulfilled	-4445
▁matrimonio	-4446
ID	-4447
oc	-4448
Con	-4449
zco	-4450
▁CO	-4451
▁Sm	-4452
▁av	-4453
▁“[	-4454
curs	-4455
ests	-4456
outh	-4457
▁civ	-4458
▁opt	-4459
▁pen	-4460
▁reb	-4461
▁wis	-4462
ectos	-4463
iados	-4464
idden	-4465
inted	-4466
itura	-4467
▁edad	-4468
▁enga	-4469
▁redu	-4470
▁ship	-4471
▁sons	-4472
▁weap	-4473
ciente	-4474
uestos	-4475
▁accep	-4476
▁justo	-4477
▁monte	-4478
▁trata	-4479
▁trono	-4480
▁French	-4481
▁conoce	-4482
▁effort	-4483
▁increí	-4484
▁school	-4485
▁visión	-4486
▁Germany	-4487
▁changes	-4488
▁descubr	-4489
▁disappe	-4490
▁lugares	-4491
▁Alemania	-4492
▁Forgiver	-4493
▁blessings	-4494
▁construir	-4495
▁respondió	-4496
4)	-4497
ann	-4498
cus	-4499
zer	-4500
▁90	-4501
▁II	-4502
▁Sy	-4503
▁oh	-4504
Cuál	-4505
arás	-4506
clam	-4507
ende	-4508
esor	-4509
icit	-4510
ioso	-4511
omon	-4512
▁Pra	-4513
▁met	-4514
▁mid	-4515
▁méd	-4516
sions	-4517
▁Bill	-4518
▁Bush	-4519
▁Mart	-4520
▁éste	-4521
▁intel	-4522
▁plans	-4523
itional	-4524
ización	-4525
▁acción	-4526
▁choice	-4527
▁instru	-4528
▁padres	-4529
▁pecado	-4530
ilidades	-4531
▁Francia	-4532
▁achieve	-4533
▁changed	-4534
▁delante	-4535
▁knowing	-4536
▁replied	-4537
▁solidar	-4538
▁victory	-4539
▁atención	-4540
▁military	-4541
▁bendición	-4542
▁spiritual	-4543
▁testimony	-4544
▁musulmanes	-4545
0.	-4546
5).	-4547
adr	-4548
eah	-4549
▁Ed	-4550
▁il	-4551
ened	-4552
ingu	-4553
leep	-4554
onia	-4555
osas	-4556
pare	-4557
uela	-4558
▁Sam	-4559
▁See	-4560
▁aso	-4561
▁bur	-4562
▁lan	-4563
gress	-4564
▁Quer	-4565
▁elev	-4566
▁thou	-4567
▁técn	-4568
ession	-4569
ienten	-4570
▁Cielo	-4571
▁clase	-4572
▁devil	-4573
▁doesn	-4574
▁escog	-4575
▁hogar	-4576
▁impro	-4577
▁vemos	-4578
▁worth	-4579
▁action	-4580
▁libros	-4581
▁wealth	-4582
idelidad	-4583
▁institu	-4584
▁outside	-4585
▁propios	-4586
▁próximo	-4587
▁society	-4588
▁estrateg	-4589
▁institut	-4590
▁mentiras	-4591
▁probable	-4592
▁thoughts	-4593
▁oscuridad	-4594
▁información	-4595
▁opportunity	-4596
▁understanding	-4597
3,	-4598
7]	-4599
Do	-4600
yó	-4601
voc	-4602
▁Ta	-4603
▁ce	-4604
ared	-4605
gent	-4606
orea	-4607
ouch	-4608
▁(2)	-4609
▁Tem	-4610
▁cle	-4611
araón	-4612
ounds	-4613
▁2020	-4614
▁Also	-4615
▁King	-4616
▁Pues	-4617
▁born	-4618
▁cuar	-4619
▁lose	-4620
▁plat	-4621
ativas	-4622
▁Other	-4623
▁autom	-4624
▁birth	-4625
▁estuv	-4626
▁joven	-4627
▁meant	-4628
▁solut	-4629
También	-4630
▁Cristo	-4631
▁Joseph	-4632
▁animal	-4633
▁aspect	-4634
▁loving	-4635
▁proper	-4636
Almighty	-4637
▁Algunos	-4638
▁decided	-4639
▁democra	-4640
▁history	-4641
▁secreto	-4642
▁blessing	-4643
▁comenzar	-4644
▁espíritu	-4645
▁response	-4646
▁Scripture	-4647
▁sabiduría	-4648
▁totalmente	-4649
▁bendiciones	-4650
4]	-4651
On	-4652
ár	-4653
Así	-4654
Sin	-4655
fin	-4656
▁2,	-4657
▁Cas	-4658
▁Div	-4659
Todos	-4660
esión	-4661
light	-4662
pable	-4663
▁dará	-4664
▁quis	-4665
▁sell	-4666
tained	-4667
umento	-4668
ículos	-4669
▁clara	-4670
▁daugh	-4671
▁hours	-4672
▁indic	-4673
▁major	-4674
▁ofici	-4675
▁rules	-4676
▁souls	-4677
inación	-4678
▁Estado	-4679
▁acepta	-4680
▁announ	-4681
▁juzgar	-4682
▁planes	-4683
▁taught	-4684
▁turned	-4685
ironment	-4686
▁Prophet	-4687
▁animals	-4688
▁minutes	-4689
▁muestra	-4690
▁restaur	-4691
▁aprender	-4692
▁attribut	-4693
▁destruir	-4694
▁enemigos	-4695
▁material	-4696
▁paciente	-4697
▁thousands	-4698
PP	-4699
ég	-4700
▁!	-4701
ajo	-4702
got	-4703
iam	-4704
reg	-4705
rán	-4706
uge	-4707
▁Ev	-4708
usal	-4709
▁Act	-4710
▁Jim	-4711
▁bra	-4712
▁run	-4713
▁Egip	-4714
▁cabo	-4715
▁crit	-4716
▁digo	-4717
▁felt	-4718
▁game	-4719
▁plen	-4720
▁pose	-4721
▁Hamas	-4722
▁Hasta	-4723
▁Quest	-4724
▁Todas	-4725
▁admin	-4726
▁avail	-4727
▁mucha	-4728
▁angels	-4729
▁aument	-4730
▁compla	-4731
▁garant	-4732
▁policy	-4733
▁precis	-4734
▁temple	-4735
▁Europeo	-4736
▁abandon	-4737
▁becomes	-4738
▁enemies	-4739
▁forgive	-4740
▁líderes	-4741
▁constant	-4742
▁happening	-4743
▁president	-4744
▁suffering	-4745
▁development	-4746
▁information	-4747
▁Verdaderamente	-4748
4.	-4749
9]	-4750
Tú	-4751
“.	-4752
Ent	-4753
Las	-4754
mon	-4755
▁35	-4756
▁Em	-4757
▁Er	-4758
anda	-4759
anks	-4760
caso	-4761
orta	-4762
▁Any	-4763
▁Adán	-4764
▁Cuba	-4765
▁Love	-4766
▁army	-4767
▁bast	-4768
▁guía	-4769
▁Could	-4770
▁Leave	-4771
▁Puede	-4772
▁Venez	-4773
▁benef	-4774
▁books	-4775
▁carry	-4776
▁inher	-4777
▁telev	-4778
▁defend	-4779
▁likely	-4780
▁partir	-4781
▁praise	-4782
▁puesto	-4783
▁varias	-4784
▁Pharaoh	-4785
▁Solomon	-4786
▁explain	-4787
▁Pregunta	-4788
▁obedecer	-4789
▁posición	-4790
▁returned	-4791
▁speaking	-4792
▁transform	-4793
▁pensamientos	-4794
▁estadounidenses	-4795
2,	-4796
8]	-4797
Ch	-4798
bas	-4799
áis	-4800
▁36	-4801
▁99	-4802
ulos	-4803
▁Bob	-4804
▁dog	-4805
▁ren	-4806
ategy	-4807
ielos	-4808
▁Cómo	-4809
▁Gran	-4810
▁acto	-4811
▁carn	-4812
▁hubo	-4813
▁moon	-4814
▁paso	-4815
▁pros	-4816
▁rich	-4817
▁tend	-4818
ateful	-4819
idence	-4820
▁Estas	-4821
▁advan	-4822
▁almas	-4823
▁conoc	-4824
▁fully	-4825
▁poner	-4826
▁seres	-4827
▁Egipto	-4828
▁agregó	-4829
▁dispon	-4830
▁fuente	-4831
▁offici	-4832
viamente	-4833
▁abierto	-4834
▁alegría	-4835
▁contrad	-4836
▁profund	-4837
▁Salvador	-4838
▁ciudades	-4839
▁manifest	-4840
▁necesario	-4841
▁sometimes	-4842
▁omnipotente	-4843
EM	-4844
bs	-4845
col	-4846
rah	-4847
xim	-4848
▁ge	-4849
▁ib	-4850
feta	-4851
gull	-4852
iger	-4853
paña	-4854
pres	-4855
▁Her	-4856
▁Sim	-4857
▁rom	-4858
▁tur	-4859
▁tér	-4860
▁wel	-4861
antas	-4862
istro	-4863
manas	-4864
▁City	-4865
▁añad	-4866
▁fast	-4867
▁goal	-4868
▁phys	-4869
▁Todop	-4870
▁elect	-4871
▁feliz	-4872
▁loved	-4873
▁takes	-4874
▁tried	-4875
▁Answer	-4876
▁associ	-4877
▁frente	-4878
▁threat	-4879
▁Jerusal	-4880
▁enfrent	-4881
▁Question	-4882
▁position	-4883
▁Mountains	-4884
▁esperando	-4885
▁podríamos	-4886
▁cualquiera	-4887
▁Todopoderoso	-4888
.[	-4889
6,	-4890
8)	-4891
ze	-4892
aby	-4893
hab	-4894
mán	-4895
ode	-4896
val	-4897
▁PR	-4898
esta	-4899
gine	-4900
omón	-4901
rote	-4902
tran	-4903
▁fís	-4904
▁loc	-4905
Corán	-4906
ativo	-4907
preci	-4908
▁Gaza	-4909
▁ambi	-4910
▁atra	-4911
▁desm	-4912
▁feed	-4913
▁gain	-4914
▁irre	-4915
▁pier	-4916
▁port	-4917
▁supp	-4918
▁tree	-4919
cience	-4920
ensión	-4921
▁chall	-4922
▁efect	-4923
▁jugar	-4924
▁oppos	-4925
▁supre	-4926
▁Muchos	-4927
▁asesin	-4928
▁chance	-4929
▁consid	-4930
▁desper	-4931
▁either	-4932
▁propor	-4933
▁wisdom	-4934
▁convirt	-4935
▁opinión	-4936
▁produce	-4937
▁univers	-4938
▁buscando	-4939
▁hospital	-4940
▁millions	-4941
▁problems	-4942
▁strategy	-4943
▁Presidente	-4944
▁environment	-4945
▁arrepentimiento	-4946
6)	-4947
GF	-4948
gl	-4949
For	-4950
Our	-4951
▁Ah	-4952
▁sc	-4953
▁ur	-4954
Creo	-4955
jero	-4956
more	-4957
omen	-4958
tegr	-4959
▁Reg	-4960
▁hom	-4961
▁lín	-4962
▁mic	-4963
▁und	-4964
claim	-4965
jeros	-4966
olver	-4967
▁Mess	-4968
▁Port	-4969
▁burn	-4970
▁guid	-4971
▁init	-4972
▁terc	-4973
▁Power	-4974
▁Since	-4975
▁Yemen	-4976
▁break	-4977
▁debes	-4978
▁eight	-4979
▁ganar	-4980
▁infin	-4981
▁journ	-4982
▁quiera	-4983
▁siguen	-4984
▁source	-4985
▁travel	-4986
▁usando	-4987
▁verily	-4988
tributos	-4989
▁Profeta	-4990
▁accompl	-4991
▁comprom	-4992
▁confirm	-4993
▁meaning	-4994
▁empresas	-4995
▁solución	-4996
▁Realmente	-4997
▁Respuesta	-4998
▁available	-4999
▁perdonador	-5000
▁repentance	-5001
Que	-5002
rog	-5003
▁32	-5004
▁Fa	-5005
..."	-5006
anía	-5007
cles	-5008
iers	-5009
▁000	-5010
▁Ben	-5011
▁Sar	-5012
▁uso	-5013
Señor	-5014
arles	-5015
izado	-5016
usión	-5017
▁Hell	-5018
▁José	-5019
▁Such	-5020
▁gone	-5021
▁Again	-5022
▁Quran	-5023
▁ambos	-5024
▁influ	-5025
▁modos	-5026
▁spend	-5027
▁traer	-5028
iamente	-5029
▁además	-5030
▁brings	-5031
▁cielos	-5032
▁conced	-5033
▁depend	-5034
▁honest	-5035
▁puerta	-5036
▁vienen	-5037
abilidad	-5038
▁Salomón	-5039
▁meeting	-5040
▁Internet	-5041
▁comienza	-5042
▁correcto	-5043
▁grateful	-5044
▁marriage	-5045
▁sobreviv	-5046
▁universe	-5047
▁attention	-5048
▁destruirá	-5049
▁dirección	-5050
▁pacientes	-5051
AM	-5052
sh	-5053
Des	-5054
Eso	-5055
Ver	-5056
ecn	-5057
gia	-5058
ots	-5059
▁UN	-5060
bern	-5061
cida	-5062
idor	-5063
▁193	-5064
▁bal	-5065
▁cou	-5066
▁dol	-5067
▁tas	-5068
Usted	-5069
estro	-5070
iales	-5071
istan	-5072
ories	-5073
▁Cent	-5074
▁aseg	-5075
▁cerc	-5076
▁guar	-5077
▁ocho	-5078
▁vivo	-5079
ábamos	-5080
▁adecu	-5081
▁built	-5082
▁desea	-5083
▁nueve	-5084
▁subst	-5085
▁toler	-5086
▁worse	-5087
▁affect	-5088
▁alaban	-5089
▁diablo	-5090
▁extrem	-5091
▁muerto	-5092
▁predic	-5093
▁vision	-5094
▁Tenemos	-5095
▁Ukraine	-5096
▁aliment	-5097
▁connect	-5098
▁parents	-5099
▁riqueza	-5100
▁tendrán	-5101
▁brothers	-5102
▁enfermed	-5103
▁goodness	-5104
▁universo	-5105
▁increíble	-5106
▁interpret	-5107
▁rápidamente	-5108
0,	-5109
Pe	-5110
aly	-5111
▁39	-5112
ileg	-5113
orme	-5114
▁Era	-5115
▁Ire	-5116
▁Ken	-5117
▁cat	-5118
▁vin	-5119
ators	-5120
eless	-5121
entas	-5122
landa	-5123
▁Coun	-5124
▁Cual	-5125
▁Gabr	-5126
▁Know	-5127
▁cuid	-5128
▁kids	-5129
▁post	-5130
▁sola	-5131
▁song	-5132
ancias	-5133
cement	-5134
▁Donde	-5135
▁began	-5136
▁class	-5137
▁refug	-5138
▁signs	-5139
▁George	-5140
▁Martin	-5141
▁asunto	-5142
▁attack	-5143
▁begins	-5144
▁escape	-5145
▁forgot	-5146
▁grupos	-5147
▁reglas	-5148
▁siervo	-5149
▁Gabriel	-5150
▁Ireland	-5151
▁capaces	-5152
▁capital	-5153
▁enviado	-5154
▁estaría	-5155
ificación	-5156
▁Although	-5157
▁Paradise	-5158
▁adelante	-5159
▁approach	-5160
▁recuerda	-5161
passionate	-5162
▁necesitas	-5163
▁ourselves	-5164
▁estrategia	-5165
▁permanecer	-5166
▁agradecidos	-5167
su	-5168
▁»	-5169
iss	-5170
zca	-5171
▁DE	-5172
guir	-5173
ince	-5174
itiz	-5175
mend	-5176
raid	-5177
▁Ucr	-5178
▁ham	-5179
▁lid	-5180
▁sem	-5181
ology	-5182
▁Chin	-5183
▁Ning	-5184
▁Prom	-5185
▁alto	-5186
▁fill	-5187
▁tecn	-5188
▁view	-5189
▁vive	-5190
▁Smith	-5191
▁Would	-5192
▁agrad	-5193
▁cient	-5194
▁cover	-5195
▁pasar	-5196
▁sanct	-5197
▁whose	-5198
ciencia	-5199
▁Global	-5200
▁celebr	-5201
▁decide	-5202
▁groups	-5203
▁region	-5204
▁Europea	-5205
▁besides	-5206
▁comunic	-5207
▁learned	-5208
▁llamada	-5209
▁measure	-5210
▁horrible	-5211
▁increase	-5212
▁solution	-5213
▁thinking	-5214
▁agreement	-5215
▁encontrado	-5216
▁condiciones	-5217
▁misericordios	-5218
1)	-5219
fo	-5220
acy	-5221
iza	-5222
key	-5223
vem	-5224
enas	-5225
▁déc	-5226
▁fif	-5227
▁hot	-5228
▁jun	-5229
earch	-5230
▁Give	-5231
▁Last	-5232
▁Prim	-5233
▁nine	-5234
▁repe	-5235
vember	-5236
▁Never	-5237
▁Steve	-5238
▁aware	-5239
▁cross	-5240
▁dedic	-5241
▁empez	-5242
▁firme	-5243
▁verse	-5244
▁Temple	-5245
▁afraid	-5246
▁democr	-5247
▁demons	-5248
▁discut	-5249
▁inspir	-5250
▁preced	-5251
▁precio	-5252
▁reform	-5253
▁Command	-5254
▁Irlanda	-5255
▁Perhaps	-5256
▁Ucrania	-5257
▁current	-5258
▁warning	-5259
▁profetas	-5260
▁wherever	-5261
▁Venezuela	-5262
▁preguntar	-5263
▁Escrituras	-5264
▁palestinos	-5265
▁significado	-5266
)?	-5267
CE	-5268
ff	-5269
ola	-5270
bles	-5271
cerá	-5272
este	-5273
▁Mor	-5274
Ellos	-5275
erved	-5276
▁cand	-5277
▁luna	-5278
▁mart	-5279
isters	-5280
▁Great	-5281
▁White	-5282
▁claim	-5283
▁falso	-5284
▁force	-5285
▁large	-5286
▁legis	-5287
▁pedir	-5288
▁plazo	-5289
▁remin	-5290
▁sueño	-5291
▁wrath	-5292
lamento	-5293
ulation	-5294
▁cabeza	-5295
▁cooper	-5296
▁divers	-5297
▁giving	-5298
▁levant	-5299
▁losing	-5300
▁orgull	-5301
▁preocu	-5302
▁refuge	-5303
▁servir	-5304
▁aceptar	-5305
▁escucha	-5306
▁maneras	-5307
▁quickly	-5308
▁realize	-5309
▁reflect	-5310
▁semanas	-5311
▁vuestro	-5312
▁Judgment	-5313
▁communic	-5314
▁covenant	-5315
▁derechos	-5316
▁práctica	-5317
▁tratando	-5318
▁beginning	-5319
▁condition	-5320
▁following	-5321
▁recompensa	-5322
▁throughout	-5323
▁importantes	-5324
▁inmediatamente	-5325
40	-5326
99	-5327
amp	-5328
bil	-5329
cir	-5330
iet	-5331
iew	-5332
pet	-5333
rea	-5334
uda	-5335
ury	-5336
▁"[	-5337
▁ON	-5338
▁Pl	-5339
...”	-5340
cred	-5341
inta	-5342
orma	-5343
ured	-5344
▁Dem	-5345
▁Fam	-5346
▁Mat	-5347
▁Sun	-5348
▁gas	-5349
▁nie	-5350
▁tri	-5351
abado	-5352
iores	-5353
razil	-5354
▁Brit	-5355
▁adop	-5356
▁bear	-5357
▁cole	-5358
▁rein	-5359
▁step	-5360
Cuando	-5361
ertain	-5362
fortun	-5363
iación	-5364
▁Canad	-5365
▁Peter	-5366
▁Resur	-5367
▁dolor	-5368
▁front	-5369
▁hears	-5370
▁impos	-5371
▁liars	-5372
▁liter	-5373
▁price	-5374
▁react	-5375
▁sleep	-5376
▁stars	-5377
▁viaje	-5378
▁viven	-5379
▁buscar	-5380
▁prison	-5381
▁scient	-5382
▁vuelta	-5383
Entonces	-5384
ualmente	-5385
▁consejo	-5386
▁importa	-5387
▁propias	-5388
▁reunión	-5389
▁answered	-5390
▁building	-5391
▁correcta	-5392
▁europeos	-5393
▁guidance	-5394
▁proclaim	-5395
▁reminder	-5396
▁Escritura	-5397
▁companies	-5398
▁including	-5399
▁deberíamos	-5400
▁estudiantes	-5401
▁resurrección	-5402
’,	-5403
bed	-5404
han	-5405
iah	-5406
isa	-5407
pon	-5408
yan	-5409
▁Fu	-5410
▁Na	-5411
brah	-5412
like	-5413
▁aud	-5414
▁bro	-5415
▁bud	-5416
▁fed	-5417
▁gre	-5418
▁isn	-5419
iblia	-5420
ulgar	-5421
usion	-5422
▁hero	-5423
▁insp	-5424
▁surv	-5425
▁town	-5426
atives	-5427
ología	-5428
▁Union	-5429
▁along	-5430
▁estén	-5431
▁guide	-5432
▁pacto	-5433
▁papel	-5434
▁pobre	-5435
▁pocos	-5436
▁promo	-5437
▁study	-5438
▁swear	-5439
pointed	-5440
▁Biblia	-5441
▁alcanz	-5442
▁enviar	-5443
▁opción	-5444
▁opened	-5445
▁Brother	-5446
▁fuertes	-5447
▁mandato	-5448
▁nombres	-5449
▁writing	-5450
▁Mientras	-5451
▁alcanzar	-5452
▁anterior	-5453
▁necesito	-5454
▁reconcil	-5455
▁separate	-5456
▁students	-5457
▁testigos	-5458
▁tuvieron	-5459
▁evidencia	-5460
▁recommend	-5461
▁convertido	-5462
▁generación	-5463
▁generation	-5464
▁obediencia	-5465
▁proporcion	-5466
▁sucediendo	-5467
▁interesting	-5468
12	-5469
Now	-5470
PPE	-5471
eks	-5472
emb	-5473
ief	-5474
ols	-5475
ume	-5476
yer	-5477
▁Fe	-5478
▁[2	-5479
abor	-5480
amás	-5481
como	-5482
enry	-5483
hood	-5484
irds	-5485
jest	-5486
void	-5487
▁EGF	-5488
▁Spa	-5489
▁Was	-5490
▁adm	-5491
▁mue	-5492
▁saf	-5493
▁vio	-5494
Puede	-5495
dados	-5496
icked	-5497
swers	-5498
▁2008	-5499
▁Chen	-5500
▁Merc	-5501
▁Será	-5502
▁Vida	-5503
▁deep	-5504
▁exig	-5505
▁hall	-5506
▁pasó	-5507
celona	-5508
iremos	-5509
itable	-5510
nother	-5511
▁Conse	-5512
▁Unión	-5513
▁afirm	-5514
▁armas	-5515
▁chast	-5516
▁decla	-5517
▁emple	-5518
▁ideal	-5519
▁llegó	-5520
▁magia	-5521
▁repla	-5522
▁sitio	-5523
▁wrote	-5524
isation	-5525
liament	-5526
viembre	-5527
▁Juicio	-5528
▁Portug	-5529
▁asegur	-5530
▁incred	-5531
▁milagr	-5532
▁mismas	-5533
▁presup	-5534
▁sector	-5535
▁Chinese	-5536
▁General	-5537
▁Siempre	-5538
▁creemos	-5539
▁fronter	-5540
▁percent	-5541
▁preocup	-5542
▁tempran	-5543
▁tercera	-5544
▁believes	-5545
▁cultural	-5546
▁nacional	-5547
▁regresar	-5548
▁condición	-5549
▁estrellas	-5550
▁witnesses	-5551
▁recordatorio	-5552
?’	-5553
Una	-5554
cha	-5555
upt	-5556
▁37	-5557
▁49	-5558
ciar	-5559
ival	-5560
omas	-5561
quía	-5562
▁Two	-5563
▁dut	-5564
▁ear	-5565
▁inc	-5566
▁smo	-5567
▁tax	-5568
cerdo	-5569
cumst	-5570
icias	-5571
ouble	-5572
▁None	-5573
▁Rome	-5574
▁Test	-5575
▁apar	-5576
▁harm	-5577
▁pudo	-5578
▁seed	-5579
▁spok	-5580
▁wind	-5581
▁ésta	-5582
▁Angel	-5583
▁Henry	-5584
▁Jones	-5585
▁Trans	-5586
▁carne	-5587
▁citiz	-5588
▁ended	-5589
▁equal	-5590
▁model	-5591
▁weeks	-5592
▁write	-5593
▁Argent	-5594
▁anyway	-5595
▁asking	-5596
▁candid	-5597
▁cuales	-5598
▁cumple	-5599
▁danger	-5600
▁divert	-5601
▁proced	-5602
▁regalo	-5603
▁rights	-5604
▁search	-5605
▁seemed	-5606
▁tantos	-5607
▁Muslims	-5608
▁answers	-5609
▁calling	-5610
▁consequ	-5611
▁pensado	-5612
▁provide	-5613
▁solicit	-5614
▁November	-5615
▁Remember	-5616
▁artículo	-5617
▁cuestión	-5618
▁prepared	-5619
▁revelado	-5620
▁compasión	-5621
▁fidelidad	-5622
▁obviously	-5623
▁pecadores	-5624
▁principal	-5625
▁proyectos	-5626
▁conditions	-5627
44	-5628
Te	-5629
▁i	-5630
Qur	-5631
Ser	-5632
alu	-5633
ami	-5634
▁AM	-5635
▁Li	-5636
Sólo	-5637
bled	-5638
elas	-5639
thod	-5640
▁Lin	-5641
▁pil	-5642
▁vas	-5643
ombra	-5644
venth	-5645
▁Look	-5646
▁Rich	-5647
▁aver	-5648
▁blog	-5649
▁devo	-5650
▁dorm	-5651
▁inca	-5652
▁mund	-5653
▁ocup	-5654
▁pied	-5655
▁role	-5656
▁surr	-5657
▁type	-5658
acción	-5659
▁Child	-5660
▁Light	-5661
▁alive	-5662
▁casos	-5663
▁mirar	-5664
▁proud	-5665
▁salir	-5666
▁shows	-5667
▁Brazil	-5668
▁beings	-5669
▁ciento	-5670
▁crimin	-5671
▁extend	-5672
▁injust	-5673
▁lograr	-5674
▁segura	-5675
▁unless	-5676
▁Chapter	-5677
▁Georgia	-5678
▁discuss	-5679
▁escuela	-5680
▁llegado	-5681
▁opinion	-5682
▁possess	-5683
▁agricult	-5684
▁bastante	-5685
▁circumst	-5686
▁completo	-5687
▁distingu	-5688
▁experien	-5689
▁familiar	-5690
▁followed	-5691
▁pequeños	-5692
▁próximos	-5693
▁stronger	-5694
▁compartir	-5695
▁recognize	-5696
▁concerning	-5697
▁discovered	-5698
▁convertirse	-5699
▁pensamiento	-5700
15	-5701
?)	-5702
ef	-5703
hi	-5704
py	-5705
ti	-5706
wa	-5707
bit	-5708
cun	-5709
ius	-5710
izá	-5711
pla	-5712
tro	-5713
uls	-5714
xto	-5715
yle	-5716
▁42	-5717
▁Ol	-5718
enty	-5719
line	-5720
ondo	-5721
wise	-5722
▁Art	-5723
▁Nos	-5724
▁Rob	-5725
▁Ter	-5726
▁[1]	-5727
▁inj	-5728
▁sud	-5729
esper	-5730
ising	-5731
▁2000	-5732
▁Book	-5733
▁Está	-5734
▁June	-5735
▁Mosc	-5736
▁ampl	-5737
▁bord	-5738
▁cruz	-5739
▁elig	-5740
▁fish	-5741
▁odio	-5742
▁“...	-5743
cación	-5744
▁crime	-5745
▁dwell	-5746
▁helps	-5747
▁langu	-5748
▁multi	-5749
▁names	-5750
▁repet	-5751
▁tesor	-5752
ilities	-5753
▁Rather	-5754
▁common	-5755
▁gobier	-5756
▁llamar	-5757
▁planet	-5758
▁serían	-5759
▁Israeli	-5760
▁account	-5761
▁element	-5762
▁europeo	-5763
▁further	-5764
▁películ	-5765
▁permite	-5766
▁practic	-5767
▁próxima	-5768
▁sacerdo	-5769
▁sucedió	-5770
▁Especial	-5771
▁Japanese	-5772
▁accepted	-5773
▁cantidad	-5774
▁esfuerzo	-5775
▁interior	-5776
▁patients	-5777
▁primeros	-5778
▁According	-5779
▁Barcelona	-5780
▁destroyed	-5781
▁noviembre	-5782
▁permanece	-5783
▁productos	-5784
▁transgres	-5785
Ciertamente	-5786
▁relaciones	-5787
▁generaciones	-5788
IA	-5789
Has	-5790
Why	-5791
ube	-5792
vis	-5793
▁00	-5794
▁4.	-5795
▁pi	-5796
▁ví	-5797
enge	-5798
esto	-5799
gúnt	-5800
imas	-5801
lack	-5802
▁Lit	-5803
▁aun	-5804
▁mut	-5805
▁rid	-5806
▁ést	-5807
angel	-5808
ellas	-5809
empla	-5810
istán	-5811
ptimo	-5812
érica	-5813
▁2015	-5814
▁Roma	-5815
▁Sept	-5816
▁inev	-5817
▁sagr	-5818
▁self	-5819
▁útil	-5820
▁Third	-5821
▁afect	-5822
▁anger	-5823
▁frecu	-5824
▁imper	-5825
▁ingen	-5826
▁línea	-5827
▁terms	-5828
▁touch	-5829
▁Herman	-5830
▁Johnny	-5831
▁buenos	-5832
▁denied	-5833
▁elegir	-5834
▁events	-5835
▁gather	-5836
▁murder	-5837
▁resist	-5838
▁sudden	-5839
ertainly	-5840
▁Another	-5841
▁Johnson	-5842
▁estarán	-5843
▁heavens	-5844
▁perdido	-5845
▁results	-5846
▁Capítulo	-5847
▁Everyone	-5848
▁commands	-5849
▁compañía	-5850
▁escogido	-5851
▁guarante	-5852
▁prophets	-5853
▁requiere	-5854
▁santidad	-5855
▁convierte	-5856
▁felicidad	-5857
▁nuevamente	-5858
▁seguramente	-5859
▁definitivamente	-5860
Mu	-5861
OM	-5862
3).	-5863
8).	-5864
bum	-5865
das	-5866
leg	-5867
íst	-5868
▁Sé	-5869
ired	-5870
last	-5871
that	-5872
used	-5873
▁Hel	-5874
▁Les	-5875
▁Sup	-5876
▁aff	-5877
▁cru	-5878
▁dom	-5879
▁Noah	-5880
▁educ	-5881
▁hija	-5882
▁lack	-5883
▁vide	-5884
▁vote	-5885
▁wasn	-5886
gement	-5887
▁Faith	-5888
▁Think	-5889
▁aprob	-5890
▁disci	-5891
▁emplo	-5892
▁falta	-5893
▁innov	-5894
▁temen	-5895
ination	-5896
isement	-5897
▁Mother	-5898
▁Should	-5899
▁confer	-5900
▁doctor	-5901
▁formas	-5902
▁integr	-5903
▁modelo	-5904
▁remind	-5905
▁revela	-5906
▁siente	-5907
▁spoken	-5908
▁taking	-5909
▁worked	-5910
▁Jackson	-5911
▁Nuestra	-5912
▁arrived	-5913
▁hicimos	-5914
▁offered	-5915
▁prayers	-5916
▁proclam	-5917
▁querían	-5918
▁torment	-5919
Realmente	-5920
▁although	-5921
▁contrary	-5922
▁humanity	-5923
▁recibido	-5924
▁surprise	-5925
bablemente	-5926
▁administr	-5927
▁atributos	-5928
▁believers	-5929
▁contribut	-5930
▁potential	-5931
▁generations	-5932
▁sufrimiento	-5933
▁commandments	-5934
.,	-5935
.“	-5936
6]	-5937
Ha	-5938
Su	-5939
UE	-5940
?”.	-5941
Hab	-5942
elf	-5943
ued	-5944
wor	-5945
éro	-5946
▁(4	-5947
▁**	-5948
▁5.	-5949
▁dó	-5950
▁«.	-5951
Para	-5952
Well	-5953
anas	-5954
culo	-5955
ibly	-5956
obed	-5957
rera	-5958
▁150	-5959
▁bás	-5960
▁ego	-5961
▁hol	-5962
▁jap	-5963
▁pri	-5964
Bueno	-5965
▁Cong	-5966
▁acom	-5967
▁amar	-5968
▁blan	-5969
▁cust	-5970
▁join	-5971
▁oído	-5972
▁sick	-5973
▁surg	-5974
asures	-5975
cieron	-5976
ecesit	-5977
ection	-5978
▁Bible	-5979
▁admit	-5980
▁cases	-5981
▁coche	-5982
▁común	-5983
▁dólar	-5984
▁event	-5985
▁pelig	-5986
▁serio	-5987
▁viejo	-5988
cionado	-5989
▁Master	-5990
▁Montañ	-5991
▁circun	-5992
▁conclu	-5993
▁mighty	-5994
▁pobres	-5995
▁preach	-5996
▁rebell	-5997
▁sacred	-5998
▁sosten	-5999
▁unique	-6000
▁Consejo	-6001
▁Durante	-6002
▁January	-6003
▁Western	-6004
▁William	-6005
▁accepts	-6006
▁allowed	-6007
▁aquello	-6008
▁cambios	-6009
▁caminos	-6010
▁estados	-6011
▁prevent	-6012
▁prosper	-6013
▁regular	-6014
▁tampoco	-6015
▁addition	-6016
▁conocido	-6017
▁forgives	-6018
▁profundo	-6019
▁projects	-6020
▁sistemas	-6021
▁committed	-6022
▁disappear	-6023
▁objetivos	-6024
▁attributes	-6025
▁habitación	-6026
▁Palestinian	-6027
!,	-6028
-5	-6029
25	-6030
3:	-6031
An	-6032
Ex	-6033
ky	-6034
si	-6035
yn	-6036
ENT	-6037
ays	-6038
how	-6039
pes	-6040
sab	-6041
ula	-6042
ares	-6043
gest	-6044
ints	-6045
otos	-6046
ract	-6047
ucir	-6048
▁Cal	-6049
▁Han	-6050
▁cel	-6051
▁dra	-6052
▁len	-6053
▁oír	-6054
▁sky	-6055
▁vay	-6056
iende	-6057
itter	-6058
ondon	-6059
quién	-6060
▁Each	-6061
▁Saud	-6062
▁Tell	-6063
▁acts	-6064
▁area	-6065
▁flex	-6066
▁inoc	-6067
▁leer	-6068
▁pain	-6069
▁pure	-6070
▁sens	-6071
ilater	-6072
verdad	-6073
íficos	-6074
▁Hemos	-6075
▁María	-6076
▁Mensa	-6077
▁Sarah	-6078
▁cloud	-6079
▁early	-6080
▁labor	-6081
▁podrá	-6082
▁queda	-6083
▁restr	-6084
▁worry	-6085
ossible	-6086
▁Bulgar	-6087
▁Commun	-6088
▁España	-6089
▁Puedes	-6090
▁castig	-6091
▁frutos	-6092
▁maldad	-6093
▁sexual	-6094
▁sincer	-6095
▁Council	-6096
▁Podemos	-6097
▁comenzó	-6098
▁fuerzas	-6099
▁improve	-6100
▁miembro	-6101
▁ofrecer	-6102
▁tiempos	-6103
▁circunst	-6104
▁familias	-6105
▁families	-6106
▁obstante	-6107
▁recordar	-6108
▁conseguir	-6109
▁estábamos	-6110
▁políticas	-6111
▁políticos	-6112
▁potencial	-6113
▁Parlamento	-6114
▁enfermedad	-6115
▁propósitos	-6116
▁resultados	-6117
▁presupuesto	-6118
▁directamente	-6119
▁resurrection	-6120
--	-6121
1:	-6122
2)	-6123
4,	-6124
Le	-6125
Tr	-6126
ka	-6127
ím	-6128
alt	-6129
arr	-6130
bió	-6131
cot	-6132
esa	-6133
ken	-6134
tón	-6135
▁AN	-6136
▁EL	-6137
▁Ni	-6138
▁oí	-6139
aves	-6140
empt	-6141
know	-6142
mbol	-6143
▁300	-6144
▁Afr	-6145
▁Aún	-6146
▁Ima	-6147
▁Luz	-6148
▁Soy	-6149
▁Thr	-6150
▁bod	-6151
▁non	-6152
avior	-6153
ctors	-6154
gamos	-6155
ienda	-6156
ífica	-6157
▁Conf	-6158
▁Pien	-6159
▁Very	-6160
▁door	-6161
▁heal	-6162
▁héro	-6163
▁impa	-6164
▁limp	-6165
▁ocas	-6166
▁pred	-6167
▁tema	-6168
Porque	-6169
cursos	-6170
lación	-6171
ressed	-6172
éramos	-6173
▁Chris	-6174
▁Entre	-6175
▁abier	-6176
▁arran	-6177
▁cease	-6178
▁conte	-6179
▁derro	-6180
▁jamás	-6181
▁looks	-6182
▁manag	-6183
▁murió	-6184
▁resid	-6185
▁santa	-6186
▁valor	-6187
▁London	-6188
▁Tienes	-6189
▁behalf	-6190
▁budget	-6191
▁cierta	-6192
▁confir	-6193
▁easier	-6194
▁gobern	-6195
▁signos	-6196
▁venido	-6197
▁appreci	-6198
▁consist	-6199
▁mistake	-6200
▁sinners	-6201
▁strateg	-6202
▁suceder	-6203
▁systems	-6204
▁tonight	-6205
▁totally	-6206
▁unbelie	-6207
▁elección	-6208
▁permitir	-6209
▁soldados	-6210
▁soldiers	-6211
▁terminar	-6212
▁oraciones	-6213
▁seriously	-6214
▁resolución	-6215
▁Palestinians	-6216
▁cumplimiento	-6217
▁faithfulness	-6218
▁circumstances	-6219
!»	-6220
!’	-6221
60	-6222
Jo	-6223
EAG	-6224
ane	-6225
cks	-6226
gon	-6227
yen	-6228
▁1)	-6229
▁Bu	-6230
Lord	-6231
Some	-6232
adow	-6233
publ	-6234
tood	-6235
ulio	-6236
▁Pat	-6237
▁Tay	-6238
▁Tra	-6239
▁hun	-6240
▁pan	-6241
▁sed	-6242
ester	-6243
▁Shin	-6244
▁bill	-6245
▁boca	-6246
▁pref	-6247
▁tare	-6248
▁tent	-6249
▁toma	-6250
iembre	-6251
▁Chica	-6252
▁Human	-6253
▁Spain	-6254
▁agree	-6255
▁calls	-6256
▁datos	-6257
▁divid	-6258
▁habló	-6259
▁leads	-6260
▁perro	-6261
▁rusos	-6262
▁salvo	-6263
▁tells	-6264
Estamos	-6265
cidente	-6266
erstood	-6267
▁Praise	-6268
▁deseos	-6269
▁expand	-6270
▁fruits	-6271
▁hidden	-6272
▁immigr	-6273
▁permis	-6274
▁región	-6275
▁season	-6276
▁summer	-6277
▁verano	-6278
▁vuelve	-6279
▁worlds	-6280
▁ability	-6281
▁healthy	-6282
▁inherit	-6283
▁interés	-6284
▁planeta	-6285
▁popular	-6286
▁succeed	-6287
▁trouble	-6288
▁completa	-6289
▁majority	-6290
▁mensajes	-6291
▁político	-6292
▁standard	-6293
▁subordin	-6294
▁temprano	-6295
▁utilizar	-6296
▁Americans	-6297
▁decisions	-6298
▁dispuesto	-6299
▁effective	-6300
▁fundament	-6301
▁happiness	-6302
▁recompens	-6303
▁temporada	-6304
▁decisiones	-6305
▁importancia	-6306
▁responsible	-6307
Ad	-6308
To	-6309
úa	-6310
anc	-6311
ats	-6312
eme	-6313
ibr	-6314
lin	-6315
érd	-6316
óst	-6317
Cada	-6318
ming	-6319
plom	-6320
poke	-6321
vest	-6322
▁Fed	-6323
▁Kim	-6324
▁Rev	-6325
▁THE	-6326
▁[2]	-6327
▁bús	-6328
▁ech	-6329
▁pon	-6330
▁thy	-6331
arden	-6332
arece	-6333
istry	-6334
owers	-6335
queda	-6336
▁Blan	-6337
▁Exal	-6338
▁Fuer	-6339
▁Glor	-6340
▁Pens	-6341
▁Phil	-6342
▁Real	-6343
▁auto	-6344
▁cara	-6345
▁defe	-6346
▁duty	-6347
▁emer	-6348
▁genu	-6349
▁liar	-6350
▁sees	-6351
▁sugg	-6352
Podría	-6353
▁House	-6354
▁Laura	-6355
▁Somos	-6356
▁avoid	-6357
▁enero	-6358
▁mover	-6359
▁party	-6360
▁spoke	-6361
▁Second	-6362
▁Social	-6363
▁cities	-6364
▁dispos	-6365
▁encant	-6366
▁enseña	-6367
▁hablan	-6368
▁hermos	-6369
▁humild	-6370
▁island	-6371
▁method	-6372
▁montón	-6373
▁placer	-6374
▁resour	-6375
▁Charles	-6376
▁Sabemos	-6377
▁Ustedes	-6378
▁ciencia	-6379
▁ciertas	-6380
▁escapar	-6381
▁foreign	-6382
▁mienten	-6383
▁piensan	-6384
▁progres	-6385
▁reempla	-6386
▁búsqueda	-6387
▁citizens	-6388
▁industry	-6389
▁maintain	-6390
▁perfecto	-6391
▁perspect	-6392
▁products	-6393
▁sorprend	-6394
▁Argentina	-6395
▁imposible	-6396
▁industria	-6397
▁mentiroso	-6398
▁obedience	-6399
▁religious	-6400
▁wonderful	-6401
▁encuentran	-6402
▁obviamente	-6403
2:	-6404
?»	-6405
EL	-6406
IT	-6407
ág	-6408
9).	-6409
:10	-6410
May	-6411
[1]	-6412
lad	-6413
lee	-6414
mej	-6415
tió	-6416
▁3,	-6417
▁34	-6418
▁Ba	-6419
▁ES	-6420
▁et	-6421
▁«¡	-6422
Solo	-6423
ield	-6424
lict	-6425
over	-6426
resh	-6427
▁(5)	-6428
▁Dos	-6429
▁led	-6430
▁mág	-6431
▁oro	-6432
Deber	-6433
enger	-6434
ining	-6435
ombia	-6436
ostro	-6437
▁Bras	-6438
▁True	-6439
▁amaz	-6440
▁calm	-6441
▁clim	-6442
▁cold	-6443
▁line	-6444
Rahman	-6445
ondres	-6446
ucción	-6447
▁Madre	-6448
▁abrir	-6449
▁haces	-6450
▁lleno	-6451
▁lleva	-6452
▁moder	-6453
▁neigh	-6454
▁obser	-6455
▁pasos	-6456
▁reign	-6457
▁semej	-6458
▁signo	-6459
▁Before	-6460
▁Taylor	-6461
▁Thanks	-6462
▁Turkey	-6463
▁applic	-6464
▁bancos	-6465
▁disput	-6466
▁distin	-6467
▁elimin	-6468
▁entren	-6469
▁fieles	-6470
▁helped	-6471
▁humans	-6472
▁millón	-6473
▁mundos	-6474
▁sucede	-6475
▁useful	-6476
▁viendo	-6477
▁wicked	-6478
▁Finally	-6479
▁Paraíso	-6480
▁Richard	-6481
▁Turquía	-6482
▁Twitter	-6483
▁acompañ	-6484
▁article	-6485
▁canción	-6486
▁contain	-6487
▁cultura	-6488
▁digital	-6489
▁negocio	-6490
▁partici	-6491
▁podamos	-6492
▁reached	-6493
▁request	-6494
▁tuvimos	-6495
▁various	-6496
▁vuestra	-6497
▁workers	-6498
▁Children	-6499
▁Portugal	-6500
▁Voluntad	-6501
▁absoluto	-6502
▁milagros	-6503
▁minister	-6504
▁noticias	-6505
▁physical	-6506
▁suddenly	-6507
▁viviendo	-6508
▁gobiernos	-6509
▁rechazado	-6510
▁sacrifice	-6511
▁servicios	-6512
▁ciudadanos	-6513
▁comprender	-6514
▁conciencia	-6515
▁contradict	-6516
▁disponible	-6517
▁representa	-6518
▁respuestas	-6519
▁understood	-6520
▁verdaderos	-6521
▁advertencia	-6522
▁interesante	-6523
▁posibilidad	-6524
▁consecuencias	-6525
▁investigación	-6526
8.	-6527
?!	-6528
AC	-6529
Am	-6530
Of	-6531
gn	-6532
sí	-6533
áb	-6534
?".	-6535
Don	-6536
apa	-6537
asc	-6538
gry	-6539
gur	-6540
lly	-6541
quí	-6542
▁Bl	-6543
▁Os	-6544
jado	-6545
orno	-6546
uded	-6547
▁ALL	-6548
▁Cle	-6549
▁Men	-6550
▁Mer	-6551
▁Nic	-6552
▁Sch	-6553
▁cow	-6554
▁ido	-6555
▁net	-6556
▁ves	-6557
adora	-6558
after	-6559
atter	-6560
icial	-6561
lease	-6562
minos	-6563
▁Four	-6564
▁abog	-6565
▁bank	-6566
▁cant	-6567
▁dear	-6568
▁earl	-6569
▁llen	-6570
▁mald	-6571
▁meta	-6572
▁suyo	-6573
Puedes	-6574
iation	-6575
▁Ibrah	-6576
▁Italy	-6577
▁banks	-6578
▁based	-6579
▁chose	-6580
▁dices	-6581
▁estés	-6582
▁euros	-6583
▁junio	-6584
▁lucha	-6585
▁quite	-6586
▁trade	-6587
▁yours	-6588
theless	-6589
uestras	-6590
▁Faraón	-6591
▁Italia	-6592
▁Recuer	-6593
▁active	-6594
▁actuar	-6595
▁advice	-6596
▁agenda	-6597
▁forces	-6598
▁formed	-6599
▁invers	-6600
▁misión	-6601
▁profec	-6602
▁puntos	-6603
▁purpos	-6604
▁sueños	-6605
▁tratar	-6606
▁vengan	-6607
▁wishes	-6608
▁wouldn	-6609
▁Central	-6610
▁Chicago	-6611
▁Londres	-6612
▁ancient	-6613
▁carried	-6614
▁central	-6615
▁cuidado	-6616
▁culture	-6617
▁earlier	-6618
▁explica	-6619
▁instrum	-6620
▁intelig	-6621
▁journey	-6622
▁mission	-6623
▁monstru	-6624
▁paraíso	-6625
▁preserv	-6626
▁tendrás	-6627
▁weapons	-6628
▁dificult	-6629
▁messages	-6630
▁musulmán	-6631
▁perfecta	-6632
▁recursos	-6633
▁teníamos	-6634
▁términos	-6635
▁cristiano	-6636
▁direction	-6637
▁disfrutar	-6638
▁falsehood	-6639
▁inmediato	-6640
▁intención	-6641
▁Commission	-6642
▁establecido	-6643
▁mandamiento	-6644
▁chastisement	-6645
▁particularly	-6646
▁responsabilidad	-6647
Fue	-6648
amb	-6649
low	-6650
uct	-6651
zan	-6652
zon	-6653
▁66	-6654
▁Ka	-6655
Only	-6656
Todo	-6657
head	-6658
iosa	-6659
iénd	-6660
remo	-6661
▁120	-6662
▁Ass	-6663
▁Bah	-6664
▁Ban	-6665
▁Pal	-6666
▁emo	-6667
▁tit	-6668
▁ult	-6669
Estoy	-6670
curso	-6671
ieren	-6672
istic	-6673
▁Good	-6674
▁Toda	-6675
▁adap	-6676
▁cars	-6677
▁dial	-6678
▁host	-6679
▁loss	-6680
▁ocul	-6681
▁pérd	-6682
▁sinc	-6683
▁unas	-6684
▁wine	-6685
endrán	-6686
ension	-6687
lesias	-6688
utable	-6689
▁Había	-6690
▁Puedo	-6691
▁Thank	-6692
▁actos	-6693
▁alter	-6694
▁aprop	-6695
▁blind	-6696
▁engañ	-6697
▁guess	-6698
▁hotel	-6699
▁invis	-6700
▁micro	-6701
▁negar	-6702
▁press	-6703
▁tipos	-6704
▁worst	-6705
▁Brasil	-6706
▁Canada	-6707
▁Grecia	-6708
▁Mexico	-6709
▁aparte	-6710
▁crecer	-6711
▁determ	-6712
▁esposo	-6713
▁fueran	-6714
▁legisl	-6715
▁probar	-6716
▁querer	-6717
▁tomado	-6718
▁balance	-6719
▁deliver	-6720
▁desires	-6721
▁existen	-6722
▁experim	-6723
▁hermana	-6724
▁markets	-6725
ification	-6726
▁Colombia	-6727
▁daughter	-6728
▁mercados	-6729
▁occident	-6730
▁pequeñas	-6731
▁services	-6732
▁transmit	-6733
íficamente	-6734
▁September	-6735
▁establish	-6736
▁israelíes	-6737
▁prometido	-6738
▁reconocer	-6739
▁Revelation	-6740
▁impossible	-6741
▁technology	-6742
▁crecimiento	-6743
▁independent	-6744
ortunadamente	-6745
▁consequences	-6746
▁estadounidense	-6747
,’	-6748
-4	-6749
/2	-6750
baj	-6751
iré	-6752
iso	-6753
sal	-6754
yos	-6755
ént	-6756
▁38	-6757
▁EE	-6758
▁Mé	-6759
▁Mí	-6760
agro	-6761
cono	-6762
ieza	-6763
jeto	-6764
ológ	-6765
ored	-6766
quil	-6767
rabe	-6768
this	-6769
with	-6770
▁190	-6771
▁195	-6772
▁Its	-6773
▁Max	-6774
▁Mil	-6775
▁Pak	-6776
▁Red	-6777
▁Rom	-6778
▁dan	-6779
▁ess	-6780
▁mét	-6781
▁oil	-6782
Acaso	-6783
aving	-6784
ected	-6785
finit	-6786
iesta	-6787
▁2006	-6788
▁2007	-6789
▁2009	-6790
▁Brus	-6791
▁Fire	-6792
▁PRES	-6793
▁Prof	-6794
▁aire	-6795
▁club	-6796
▁deja	-6797
▁earn	-6798
▁edif	-6799
▁hubi	-6800
▁ours	-6801
▁trae	-6802
▁Antes	-6803
▁Blair	-6804
▁Harry	-6805
▁Mercy	-6806
▁Santa	-6807
▁asoci	-6808
▁barco	-6809
▁black	-6810
▁clean	-6811
▁crees	-6812
▁direc	-6813
▁facil	-6814
▁fruto	-6815
▁kinds	-6816
▁mouth	-6817
▁white	-6818
Tenemos	-6819
icional	-6820
ulación	-6821
▁Jewish	-6822
▁México	-6823
▁amount	-6824
▁combat	-6825
▁comput	-6826
▁cuándo	-6827
▁extran	-6828
▁growth	-6829
▁placed	-6830
▁points	-6831
▁proteg	-6832
▁rostro	-6833
▁worthy	-6834
ptiembre	-6835
teriores	-6836
▁América	-6837
▁British	-6838
▁Todavía	-6839
▁benefit	-6840
▁cientos	-6841
▁conocen	-6842
▁declara	-6843
▁despite	-6844
▁destiny	-6845
▁permiso	-6846
▁pudiera	-6847
▁público	-6848
▁seguros	-6849
▁seventh	-6850
▁séptimo	-6851
▁teaches	-6852
▁Comisión	-6853
▁describe	-6854
▁economía	-6855
▁expected	-6856
▁purposes	-6857
▁Certainly	-6858
▁Cualquier	-6859
▁Parliament	-6860
▁compassion	-6861
▁governments	-6862
Compassionate	-6863
▁internacionales	-6864
13	-6865
Ah	-6866
RE	-6867
ho	-6868
íp	-6869
/20	-6870
:16	-6871
Isa	-6872
bur	-6873
gre	-6874
iro	-6875
orr	-6876
phy	-6877
pue	-6878
tin	-6879
uan	-6880
zos	-6881
▁7.	-6882
▁ór	-6883
cott	-6884
ella	-6885
enov	-6886
reas	-6887
term	-6888
▁Bet	-6889
▁Hun	-6890
▁Mac	-6891
▁Pan	-6892
▁Rab	-6893
▁Rel	-6894
▁doy	-6895
▁edu	-6896
▁fem	-6897
▁fui	-6898
▁top	-6899
Puedo	-6900
Quien	-6901
asing	-6902
ially	-6903
irect	-6904
ático	-6905
▁July	-6906
▁Mark	-6907
▁Mike	-6908
▁acab	-6909
▁amen	-6910
▁arma	-6911
▁camp	-6912
▁cien	-6913
▁cuál	-6914
▁data	-6915
▁dece	-6916
▁empt	-6917
▁fair	-6918
▁rain	-6919
▁stru	-6920
▁víct	-6921
▁zona	-6922
icians	-6923
istros	-6924
▁Green	-6925
▁March	-6926
▁Peace	-6927
▁State	-6928
▁acerc	-6929
▁beast	-6930
▁civil	-6931
▁culpa	-6932
▁dudas	-6933
▁envió	-6934
▁escal	-6935
▁ought	-6936
▁parts	-6937
▁plane	-6938
▁steps	-6939
▁verán	-6940
▁Greece	-6941
▁Poland	-6942
▁Quizás	-6943
▁britán	-6944
▁conten	-6945
▁couple	-6946
▁descub	-6947
▁estilo	-6948
▁estuvo	-6949
▁involu	-6950
▁manner	-6951
▁master	-6952
▁ofrece	-6953
▁reales	-6954
▁script	-6955
▁verses	-6956
▁victim	-6957
▁Ibrahim	-6958
▁Polonia	-6959
▁anuncio	-6960
▁caminar	-6961
▁conquer	-6962
▁frances	-6963
▁regreso	-6964
▁Creation	-6965
▁Hospital	-6966
▁absolute	-6967
▁alabanza	-6968
▁ambiente	-6969
▁decidido	-6970
▁defender	-6971
▁destruye	-6972
▁miracles	-6973
▁preguntó	-6974
▁previous	-6975
▁thankful	-6976
▁escuchado	-6977
▁explained	-6978
▁forgotten	-6979
▁Everything	-6980
▁principios	-6981
▁resolution	-6982
▁sorprender	-6983
▁tecnología	-6984
▁considerado	-6985
▁destruction	-6986
▁Misericordia	-6987
▁entendimiento	-6988
▁circunstancias	-6989
Fr	-6990
UU	-6991
yr	-6992
!".	-6993
Who	-6994
].”	-6995
ald	-6996
nes	-6997
▁1,	-6998
▁Vo	-6999
ENTE	-7000
aken	-7001
cuán	-7002
face	-7003
itch	-7004
oles	-7005
rado	-7006
rage	-7007
▁Apr	-7008
▁Big	-7009
▁Net	-7010
▁Tor	-7011
▁Uds	-7012
▁asp	-7013
▁emb	-7014
▁fix	-7015
▁flo	-7016
▁gol	-7017
▁iba	-7018
▁key	-7019
▁mío	-7020
▁oft	-7021
▁vec	-7022
▁vir	-7023
Rahim	-7024
Sabes	-7025
plica	-7026
ática	-7027
▁1000	-7028
▁Bang	-7029
▁Fund	-7030
▁aman	-7031
▁apre	-7032
▁baby	-7033
▁colo	-7034
▁conj	-7035
▁desc	-7036
▁doll	-7037
▁gold	-7038
▁guys	-7039
▁rule	-7040
▁tour	-7041
engers	-7042
igeria	-7043
ulgent	-7044
▁Imper	-7045
▁North	-7046
▁Until	-7047
▁arres	-7048
▁choos	-7049
▁cruel	-7050
▁débil	-7051
▁escen	-7052
▁evalu	-7053
▁incom	-7054
▁issue	-7055
▁slave	-7056
▁temer	-7057
ability	-7058
cciones	-7059
▁Arabia	-7060
▁Miller	-7061
▁PRESID	-7062
▁assist	-7063
▁closer	-7064
▁conver	-7065
▁crimen	-7066
▁custom	-7067
▁debate	-7068
▁divina	-7069
▁divine	-7070
▁dreams	-7071
▁easily	-7072
▁fourth	-7073
▁issues	-7074
▁leader	-7075
▁mortal	-7076
▁police	-7077
▁safety	-7078
▁sombra	-7079
▁submit	-7080
▁tribus	-7081
poderoso	-7082
▁Austria	-7083
▁appears	-7084
▁bienven	-7085
▁blessed	-7086
▁dólares	-7087
▁empresa	-7088
▁entiend	-7089
▁feeling	-7090
▁fuentes	-7091
▁hablado	-7092
▁limited	-7093
▁médicos	-7094
▁prisión	-7095
▁protest	-7096
▁welcome	-7097
▁demonios	-7098
▁explicar	-7099
▁involucr	-7100
▁partners	-7101
▁progress	-7102
▁research	-7103
▁soberano	-7104
▁starting	-7105
▁superior	-7106
▁adoración	-7107
▁continues	-7108
▁resources	-7109
▁Revelación	-7110
▁accomplish	-7111
▁habitantes	-7112
▁nacimiento	-7113
▁sacrificio	-7114
▁encontramos	-7115
▁solidaridad	-7116
▁comunicación	-7117
▁sufficiently	-7118
▁trabajadores	-7119
17	-7120
75	-7121
By	-7122
EC	-7123
TA	-7124
uk	-7125
▁)	-7126
/11	-7127
Let	-7128
Per	-7129
aso	-7130
ths	-7131
vol	-7132
’.”	-7133
▁2)	-7134
▁LA	-7135
▁Mc	-7136
▁Oc	-7137
▁Us	-7138
▁Ye	-7139
▁je	-7140
▁«¿	-7141
Como	-7142
gina	-7143
ilty	-7144
iter	-7145
lica	-7146
part	-7147
year	-7148
yers	-7149
▁Lee	-7150
▁Mag	-7151
▁Qué	-7152
▁eta	-7153
▁tro	-7154
▁tum	-7155
ander	-7156
ardín	-7157
icles	-7158
mites	-7159
ously	-7160
plies	-7161
uales	-7162
▁Once	-7163
▁Time	-7164
▁caer	-7165
▁kept	-7166
▁pies	-7167
▁reco	-7168
▁road	-7169
▁stra	-7170
▁text	-7171
▁Ésta	-7172
pected	-7173
public	-7174
urther	-7175
▁Libro	-7176
▁Super	-7177
▁birds	-7178
▁categ	-7179
▁ejemp	-7180
▁finds	-7181
▁girls	-7182
▁haría	-7183
▁likes	-7184
▁salva	-7185
▁árabe	-7186
lasting	-7187
owerful	-7188
▁Espero	-7189
▁access	-7190
▁desmin	-7191
▁filled	-7192
▁lengua	-7193
▁levels	-7194
▁llegue	-7195
▁mister	-7196
▁podían	-7197
▁refuse	-7198
▁shadow	-7199
▁speech	-7200
igración	-7201
▁Justice	-7202
▁attract	-7203
▁confiar	-7204
▁conozco	-7205
▁crucial	-7206
▁eventos	-7207
▁milagro	-7208
▁mostrar	-7209
▁niveles	-7210
▁sources	-7211
▁sustain	-7212
▁Bulgaria	-7213
▁alimento	-7214
▁cambiado	-7215
▁clientes	-7216
▁conflict	-7217
▁involved	-7218
▁movement	-7219
▁producto	-7220
▁challenge	-7221
▁convertir	-7222
▁humanitar	-7223
▁incapable	-7224
▁protected	-7225
fortunately	-7226
ulgentísimo	-7227
▁absolutely	-7228
▁everywhere	-7229
▁fácilmente	-7230
▁septiembre	-7231
▁responsable	-7232
▁announcement	-7233
▁righteousness	-7234
▁responsibility	-7235
5:	-7236
RO	-7237
]?	-7238
kn	-7239
mi	-7240
2).	-7241
Han	-7242
oto	-7243
▁2:	-7244
▁43	-7245
▁80	-7246
abrá	-7247
amin	-7248
créd	-7249
erta	-7250
gram	-7251
iber	-7252
isas	-7253
onía	-7254
áles	-7255
▁10.	-7256
▁Amb	-7257
▁Fer	-7258
▁Mad	-7259
▁Mah	-7260
▁Old	-7261
▁Sea	-7262
▁Tan	-7263
▁Yun	-7264
▁amo	-7265
▁ces	-7266
▁esc	-7267
▁exc	-7268
▁log	-7269
▁sad	-7270
▁vul	-7271
gunas	-7272
itate	-7273
known	-7274
▁FEAG	-7275
▁Stud	-7276
▁Swed	-7277
▁anal	-7278
▁feet	-7279
▁fell	-7280
▁gent	-7281
▁mayo	-7282
▁verá	-7283
▁yeah	-7284
change	-7285
▁Corea	-7286
▁Norte	-7287
▁apost	-7288
▁comet	-7289
▁conce	-7290
▁court	-7291
▁empty	-7292
▁fifth	-7293
▁frequ	-7294
▁julio	-7295
▁table	-7296
▁tarea	-7297
▁venga	-7298
▁Canadá	-7299
▁Little	-7300
▁Perdon	-7301
▁accord	-7302
▁cambia	-7303
▁diplom	-7304
▁discer	-7305
▁engine	-7306
▁faster	-7307
▁guided	-7308
▁hambre	-7309
▁noches	-7310
▁puedan	-7311
▁puedas	-7312
▁santos	-7313
▁siento	-7314
▁strugg	-7315
▁viento	-7316
▁vulner	-7317
▁Creemos	-7318
▁Pregúnt	-7319
▁Through	-7320
▁conduct	-7321
▁consigu	-7322
▁consume	-7323
▁contest	-7324
▁dominio	-7325
▁economy	-7326
▁equivoc	-7327
▁límites	-7328
▁married	-7329
▁parecen	-7330
▁pérdida	-7331
icionales	-7332
▁contribu	-7333
▁gratitud	-7334
▁hundreds	-7335
▁innocent	-7336
▁pleasure	-7337
▁recently	-7338
▁recomend	-7339
▁Palestina	-7340
▁developed	-7341
▁divertido	-7342
▁ejércitos	-7343
▁soberanía	-7344
▁superfici	-7345
▁violencia	-7346
▁importance	-7347
▁inevitable	-7348
▁mentirosos	-7349
▁permission	-7350
▁solidarity	-7351
▁destrucción	-7352
▁principales	-7353
▁suficientes	-7354
▁organización	-7355
AH	-7356
LE	-7357
MS	-7358
Ob	-7359
]:	-7360
eo	-7361
úp	-7362
ASA	-7363
BRA	-7364
ION	-7365
One	-7366
Pro	-7367
ría	-7368
ses	-7369
tró	-7370
uma	-7371
▁1-	-7372
▁58	-7373
▁Hi	-7374
▁ep	-7375
Ella	-7376
arma	-7377
atég	-7378
fair	-7379
gado	-7380
lect	-7381
ping	-7382
umin	-7383
▁(3)	-7384
▁400	-7385
▁Dad	-7386
▁Del	-7387
▁Inf	-7388
▁Kor	-7389
▁Rep	-7390
▁Tus	-7391
▁War	-7392
▁afr	-7393
▁dij	-7394
▁fly	-7395
▁low	-7396
▁mad	-7397
▁rum	-7398
▁rég	-7399
▁usu	-7400
Hemos	-7401
Peace	-7402
dónde	-7403
ended	-7404
enden	-7405
ginas	-7406
habit	-7407
iable	-7408
thern	-7409
umbre	-7410
▁(...	-7411
▁100%	-7412
▁Amor	-7413
▁Ener	-7414
▁Podr	-7415
▁Tony	-7416
▁acon	-7417
▁avan	-7418
▁capt	-7419
▁fasc	-7420
▁hice	-7421
▁pone	-7422
▁pueb	-7423
▁qual	-7424
▁sake	-7425
▁task	-7426
▁tomó	-7427
encill	-7428
▁Black	-7429
▁Frank	-7430
▁Right	-7431
▁Women	-7432
▁asist	-7433
▁atrás	-7434
▁camin	-7435
▁darle	-7436
▁excel	-7437
▁harán	-7438
▁liked	-7439
▁llevó	-7440
▁media	-7441
▁occur	-7442
▁respe	-7443
▁smoke	-7444
▁video	-7445
▁éstos	-7446
idencia	-7447
▁Michel	-7448
▁amenaz	-7449
▁apoyar	-7450
▁caused	-7451
▁evitar	-7452
▁exclus	-7453
▁factor	-7454
▁ground	-7455
▁guilty	-7456
▁habido	-7457
▁impres	-7458
▁incréd	-7459
▁majest	-7460
▁merely	-7461
▁mostró	-7462
▁myster	-7463
▁passed	-7464
▁requis	-7465
▁señora	-7466
▁talked	-7467
▁transl	-7468
▁vuelto	-7469
ological	-7470
▁African	-7471
▁adopted	-7472
▁ayudará	-7473
▁doctors	-7474
▁elegido	-7475
▁include	-7476
▁miracle	-7477
▁mundial	-7478
▁pasando	-7479
▁peligro	-7480
▁pleased	-7481
▁podrías	-7482
▁policía	-7483
▁aspectos	-7484
▁constitu	-7485
▁directly	-7486
▁escribir	-7487
▁escribió	-7488
▁forgiven	-7489
▁iglesias	-7490
▁opciones	-7491
▁platform	-7492
▁positive	-7493
▁transpar	-7494
▁vuestros	-7495
▁appointed	-7496
▁currently	-7497
▁extremely	-7498
▁perdiendo	-7499
▁rebellion	-7500
▁somewhere	-7501
▁surprised	-7502
▁tendremos	-7503
▁Especially	-7504
▁Scriptures	-7505
▁agradecido	-7506
▁confidence	-7507
▁democracia	-7508
▁financiera	-7509
▁incluyendo	-7510
▁utilizando	-7511
▁Commandments	-7512
▁institutions	-7513
▁todopoderoso	-7514
/3	-7515
19	-7516
IV	-7517
iw	-7518
óv	-7519
100	-7520
Jes	-7521
dle	-7522
enn	-7523
ray	-7524
xic	-7525
zen	-7526
▁44	-7527
▁47	-7528
▁75	-7529
Then	-7530
akes	-7531
iada	-7532
iano	-7533
iego	-7534
igur	-7535
lesh	-7536
odos	-7537
ongo	-7538
pers	-7539
quir	-7540
reet	-7541
tail	-7542
udes	-7543
upid	-7544
▁(10	-7545
▁Ant	-7546
▁Ber	-7547
▁Sue	-7548
▁Way	-7549
▁Wil	-7550
▁aid	-7551
▁ano	-7552
▁cad	-7553
▁clo	-7554
▁idi	-7555
▁lif	-7556
▁mús	-7557
anzas	-7558
arily	-7559
arían	-7560
iforn	-7561
inton	-7562
lades	-7563
rabes	-7564
zerba	-7565
ífico	-7566
▁Bank	-7567
▁Cono	-7568
▁Eric	-7569
▁Gods	-7570
▁Gree	-7571
▁Mira	-7572
▁Mund	-7573
▁Were	-7574
▁afir	-7575
▁band	-7576
▁bebé	-7577
▁coop	-7578
▁crea	-7579
▁deed	-7580
▁fate	-7581
▁ileg	-7582
▁inex	-7583
▁peso	-7584
▁pret	-7585
▁rise	-7586
▁sort	-7587
▁wall	-7588
▁Éste	-7589
▁Death	-7590
▁Tiene	-7591
▁Which	-7592
▁achie	-7593
▁adult	-7594
▁carga	-7595
▁falsa	-7596
▁field	-7597
▁fixed	-7598
▁haven	-7599
▁hayan	-7600
▁marzo	-7601
▁moned	-7602
▁moved	-7603
▁prome	-7604
▁silen	-7605
▁voted	-7606
Podemos	-7607
osición	-7608
▁10,000	-7609
▁Unless	-7610
▁americ	-7611
▁armies	-7612
▁belief	-7613
▁bestia	-7614
▁bigger	-7615
▁conden	-7616
▁eating	-7617
▁estánd	-7618
▁failed	-7619
▁higher	-7620
▁justos	-7621
▁marido	-7622
▁modern	-7623
▁método	-7624
▁nearly	-7625
▁office	-7626
▁plataf	-7627
▁profes	-7628
▁tribes	-7629
▁unidad	-7630
▁vender	-7631
▁visita	-7632
Nosotros	-7633
ilateral	-7634
▁Nigeria	-7635
▁actitud	-7636
▁century	-7637
▁coordin	-7638
▁decimos	-7639
▁empezar	-7640
▁errores	-7641
▁getting	-7642
▁italian	-7643
▁mayores	-7644
▁muchach	-7645
▁ocurrió	-7646
▁perform	-7647
▁private	-7648
▁régimen	-7649
▁sencill	-7650
▁sending	-7651
▁strange	-7652
▁suggest	-7653
▁visitar	-7654
▁Generoso	-7655
▁absoluta	-7656
▁contacto	-7657
▁deberías	-7658
▁estratég	-7659
▁funciona	-7660
▁included	-7661
▁mediante	-7662
▁opposite	-7663
▁persecut	-7664
▁quedarse	-7665
▁requires	-7666
▁sociales	-7667
▁sucederá	-7668
▁Jerusalem	-7669
▁descubrir	-7670
▁everybody	-7671
▁intention	-7672
▁preparado	-7673
▁movimiento	-7674
▁revolution	-7675
▁successful	-7676
▁televisión	-7677
▁yourselves	-7678
▁actualmente	-7679
▁significant	-7680
▁sovereignty	-7681
▁communication	-7682
▁descendientes	-7683
▁instituciones	-7684
21	-7685
26	-7686
?'	-7687
Di	-7688
OU	-7689
ws	-7690
éf	-7691
Gra	-7692
Hoy	-7693
She	-7694
ali	-7695
but	-7696
ctu	-7697
iot	-7698
▁("	-7699
▁41	-7700
▁67	-7701
▁[¡	-7702
Life	-7703
Quer	-7704
Your	-7705
alle	-7706
anim	-7707
aran	-7708
atal	-7709
atar	-7710
bath	-7711
cesa	-7712
cies	-7713
ghan	-7714
ging	-7715
igil	-7716
leza	-7717
oked	-7718
tage	-7719
unch	-7720
zado	-7721
▁(19	-7722
▁Int	-7723
▁Out	-7724
▁Sur	-7725
▁agu	-7726
▁asc	-7727
▁cha	-7728
▁dad	-7729
▁dim	-7730
▁inn	-7731
▁swe	-7732
▁web	-7733
cepto	-7734
ental	-7735
ieras	-7736
itado	-7737
ospel	-7738
parte	-7739
sabes	-7740
stead	-7741
wards	-7742
ábado	-7743
▁2011	-7744
▁2013	-7745
▁Miss	-7746
▁Nada	-7747
▁Prin	-7748
▁Prot	-7749
▁Year	-7750
▁abus	-7751
▁cere	-7752
▁duro	-7753
▁fine	-7754
▁forb	-7755
▁inse	-7756
▁malo	-7757
▁mane	-7758
▁miss	-7759
▁ofic	-7760
▁pido	-7761
▁thir	-7762
Mighty	-7763
cesión	-7764
siones	-7765
termin	-7766
▁Dicen	-7767
▁Korea	-7768
▁Nuevo	-7769
▁Scott	-7770
▁While	-7771
▁basic	-7772
▁blame	-7773
▁cabal	-7774
▁chann	-7775
▁divor	-7776
▁feels	-7777
▁flesh	-7778
▁goals	-7779
▁grave	-7780
▁ocult	-7781
▁perse	-7782
▁siglo	-7783
▁triun	-7784
▁valle	-7785
Gracias	-7786
ignific	-7787
▁Member	-7788
▁acknow	-7789
▁corrup	-7790
▁dispar	-7791
▁entera	-7792
▁ganado	-7793
▁hechos	-7794
▁intrig	-7795
▁letter	-7796
▁limits	-7797
▁looked	-7798
▁nobody	-7799
▁ocurre	-7800
▁offers	-7801
▁piensa	-7802
▁raised	-7803
▁sister	-7804
▁weapon	-7805
esterday	-7806
osamente	-7807
▁anticip	-7808
▁biggest	-7809
▁comport	-7810
▁creador	-7811
▁despier	-7812
▁esclavo	-7813
▁evening	-7814
▁existed	-7815
▁federal	-7816
▁llegará	-7817
▁negocia	-7818
▁ordered	-7819
▁playing	-7820
▁pueblos	-7821
▁puertas	-7822
▁páginas	-7823
▁reading	-7824
▁seeking	-7825
▁survive	-7826
▁whoever	-7827
▁Californ	-7828
▁Creación	-7829
▁Minister	-7830
▁Queremos	-7831
▁consiste	-7832
▁culpable	-7833
▁desierto	-7834
▁elements	-7835
▁language	-7836
▁mostrado	-7837
▁pensando	-7838
▁plenitud	-7839
▁pregunto	-7840
▁proposed	-7841
▁proviene	-7842
▁territor	-7843
ecesitamos	-7844
▁Jerusalén	-7845
▁Palestine	-7846
▁agradecer	-7847
▁aprendido	-7848
▁comercial	-7849
▁democracy	-7850
▁educación	-7851
▁esfuerzos	-7852
▁gratitude	-7853
▁consciente	-7854
▁descendida	-7855
▁equivocado	-7856
▁mencionado	-7857
▁omnipotent	-7858
▁reflection	-7859
▁científicos	-7860
▁cooperación	-7861
▁consumidores	-7862
▁absolutamente	-7863
▁perfectamente	-7864
▁Indulgentísimo	-7865
▁misericordiosos	-7866
!'	-7867
23	-7868
9:	-7869
AD	-7870
At	-7871
BI	-7872
Ya	-7873
aj	-7874
bu	-7875
”?	-7876
.’’	-7877
Son	-7878
dam	-7879
del	-7880
eck	-7881
eth	-7882
fía	-7883
hol	-7884
inn	-7885
utr	-7886
▁65	-7887
▁68	-7888
cked	-7889
erte	-7890
iana	-7891
illo	-7892
pany	-7893
▁''.	-7894
▁11.	-7895
▁191	-7896
▁Bus	-7897
▁Nel	-7898
▁Rah	-7899
▁aus	-7900
▁enr	-7901
▁oce	-7902
▁oye	-7903
▁pac	-7904
Nunca	-7905
adrid	-7906
alles	-7907
aries	-7908
arlie	-7909
canta	-7910
ellig	-7911
enaza	-7912
iedad	-7913
point	-7914
porte	-7915
▁Bien	-7916
▁Brah	-7917
▁Five	-7918
▁Flor	-7919
▁Park	-7920
▁Sina	-7921
▁abre	-7922
▁ayer	-7923
▁diam	-7924
▁grad	-7925
▁magn	-7926
▁purs	-7927
▁ries	-7928
▁suya	-7929
▁tran	-7930
▁velo	-7931
ativos	-7932
ladesh	-7933
tation	-7934
▁1,000	-7935
▁Brown	-7936
▁Isaac	-7937
▁Otros	-7938
▁Según	-7939
▁Siria	-7940
▁South	-7941
▁Syria	-7942
▁Three	-7943
▁acaba	-7944
▁actor	-7945
▁acuer	-7946
▁areas	-7947
▁cruci	-7948
▁decep	-7949
▁incon	-7950
▁moves	-7951
▁pages	-7952
▁preci	-7953
▁renew	-7954
▁simpl	-7955
▁sirve	-7956
▁trees	-7957
▁verás	-7958
amework	-7959
angelio	-7960
iración	-7961
▁Govern	-7962
▁bodies	-7963
▁couldn	-7964
▁desear	-7965
▁detail	-7966
▁divino	-7967
▁extent	-7968
▁finish	-7969
▁llaman	-7970
▁medios	-7971
▁moving	-7972
▁pierde	-7973
▁served	-7974
▁severe	-7975
▁shared	-7976
▁symbol	-7977
▁triste	-7978
▁únicos	-7979
expected	-7980
▁Further	-7981
▁Nothing	-7982
▁amazing	-7983
▁amenaza	-7984
▁aquella	-7985
▁comfort	-7986
▁conflic	-7987
▁consult	-7988
▁contemp	-7989
▁desobed	-7990
▁dispens	-7991
▁encanta	-7992
▁estudio	-7993
▁europea	-7994
▁forward	-7995
▁guerras	-7996
▁initiat	-7997
▁japones	-7998
▁neither	-7999
▁partner	-8000
▁rechazo	-8001
▁shortly	-8002
▁Aquellos	-8003
▁Consider	-8004
▁contiene	-8005
▁demonstr	-8006
▁esencial	-8007
▁individu	-8008
▁momentos	-8009
▁película	-8010
▁perdonar	-8011
▁provided	-8012
▁resolver	-8013
▁straight	-8014
▁Presencia	-8015
▁alimentos	-8016
▁convirtió	-8017
▁elementos	-8018
▁propuesta	-8019
▁regarding	-8020
▁California	-8021
▁Finalmente	-8022
▁accordance	-8023
▁compañeros	-8024
▁demostrado	-8025
▁incredible	-8026
▁plataforma	-8027
▁remembered	-8028
▁siguientes	-8029
▁versículos	-8030
▁comprensión	-8031
▁Resurrection	-8032
▁consecuencia	-8033
▁experimentar	-8034
▁requirements	-8035
▁oportunidades	-8036
)!	-8037
01	-8038
30	-8039
?]	-8040
Pr	-8041
fé	-8042
ux	-8043
▁]	-8044
).”	-8045
Rec	-8046
ctr	-8047
usa	-8048
álo	-8049
▁(9	-8050
▁46	-8051
▁Ej	-8052
▁OT	-8053
▁TV	-8054
▁du	-8055
▁”.	-8056
John	-8057
Podr	-8058
bour	-8059
cier	-8060
cure	-8061
gave	-8062
nder	-8063
opol	-8064
osed	-8065
uelo	-8066
uvia	-8067
▁Abu	-8068
▁Jul	-8069
▁Mrs	-8070
▁Pot	-8071
▁Spe	-8072
▁Ven	-8073
▁Wik	-8074
▁bed	-8075
▁bot	-8076
▁cub	-8077
Dónde	-8078
abric	-8079
arias	-8080
ciles	-8081
cuper	-8082
inger	-8083
pread	-8084
tribu	-8085
uries	-8086
▁2012	-8087
▁9/11	-8088
▁Juan	-8089
▁Lady	-8090
▁Sand	-8091
▁Span	-8092
▁arro	-8093
▁cerr	-8094
▁fool	-8095
▁gast	-8096
▁hago	-8097
▁herm	-8098
▁muse	-8099
▁nomb	-8100
▁pele	-8101
▁sirv	-8102
▁trip	-8103
adoras	-8104
bility	-8105
ctubre	-8106
ública	-8107
▁About	-8108
▁Deber	-8109
▁Segur	-8110
▁color	-8111
▁deleg	-8112
▁diría	-8113
▁estúp	-8114
▁franc	-8115
▁grant	-8116
▁green	-8117
▁listo	-8118
▁occup	-8119
▁quizá	-8120
▁renov	-8121
▁somet	-8122
▁tembl	-8123
▁value	-8124
Siempre	-8125
mediate	-8126
▁Afghan	-8127
▁Debido	-8128
▁Except	-8129
▁Nobody	-8130
▁aplica	-8131
▁bought	-8132
▁cuidar	-8133
▁endure	-8134
▁escond	-8135
▁espero	-8136
▁lluvia	-8137
▁negoti	-8138
▁objeto	-8139
▁preval	-8140
▁regime	-8141
▁stupid	-8142
▁surviv	-8143
▁wholly	-8144
▁Cameron	-8145
▁Hermano	-8146
▁Primero	-8147
▁Spanish	-8148
▁declare	-8149
▁demands	-8150
▁décadas	-8151
▁felices	-8152
▁israelí	-8153
▁maestro	-8154
▁mejorar	-8155
▁prevail	-8156
▁telling	-8157
▁tratado	-8158
▁veremos	-8159
▁árboles	-8160
ariamente	-8161
▁Cristian	-8162
▁Whatever	-8163
▁birthday	-8164
▁churches	-8165
▁flexible	-8166
▁llamados	-8167
▁negocios	-8168
▁olvidado	-8169
▁rechazar	-8170
▁verdades	-8171
▁violence	-8172
▁conflicto	-8173
▁listening	-8174
▁militares	-8175
▁perfectly	-8176
▁terminado	-8177
▁bienvenida	-8178
▁frecuencia	-8179
▁necesitaba	-8180
▁permanente	-8181
▁personally	-8182
▁producción	-8183
▁production	-8184
▁religiones	-8185
▁represents	-8186
▁únicamente	-8187
▁autoridades	-8188
▁descendants	-8189
▁habilidades	-8190
▁Probablemente	-8191
▁independiente	-8192
Be	-8193
CP	-8194
ri	-8195
yl	-8196
”!	-8197
1).	-8198
Deb	-8199
ail	-8200
ffe	-8201
sen	-8202
ñar	-8203
▁5:	-8204
▁6.	-8205
▁AD	-8206
▁Fo	-8207
▁Kr	-8208
▁ye	-8209
▁“(	-8210
Toda	-8211
adem	-8212
ague	-8213
cura	-8214
guna	-8215
onom	-8216
owed	-8217
pped	-8218
resp	-8219
uese	-8220
umer	-8221
▁Had	-8222
▁Kel	-8223
▁Lev	-8224
▁Mas	-8225
▁Muy	-8226
▁NOT	-8227
▁Nav	-8228
▁Str	-8229
▁Sud	-8230
▁Tex	-8231
▁[5]	-8232
▁ens	-8233
▁rab	-8234
amble	-8235
cidas	-8236
embly	-8237
itler	-8238
osovo	-8239
uerto	-8240
under	-8241
áculo	-8242
álogo	-8243
▁....	-8244
▁Blue	-8245
▁Casa	-8246
▁Clar	-8247
▁Come	-8248
▁Core	-8249
▁Ford	-8250
▁Over	-8251
▁Serv	-8252
▁Wang	-8253
▁acus	-8254
▁anci	-8255
▁aren	-8256
▁atre	-8257
▁bomb	-8258
▁cort	-8259
▁ears	-8260
▁ends	-8261
▁hide	-8262
▁isla	-8263
▁malv	-8264
▁mine	-8265
▁palm	-8266
▁pere	-8267
▁prem	-8268
▁quin	-8269
▁rede	-8270
▁sole	-8271
▁vice	-8272
▁wars	-8273
Cuándo	-8274
ctober	-8275
cuando	-8276
inidad	-8277
tieron	-8278
urales	-8279
urance	-8280
▁2008,	-8281
▁Armen	-8282
▁Guard	-8283
▁Hence	-8284
▁Hijos	-8285
▁Inter	-8286
▁Tengo	-8287
▁abuse	-8288
▁await	-8289
▁brain	-8290
▁casas	-8291
▁corto	-8292
▁digno	-8293
▁dirán	-8294
▁doble	-8295
▁españ	-8296
▁extin	-8297
▁forms	-8298
▁hijas	-8299
▁llamó	-8300
▁manip	-8301
▁minds	-8302
▁proof	-8303
▁radio	-8304
▁razon	-8305
▁repro	-8306
▁sepan	-8307
▁venta	-8308
▁virus	-8309
Nuestro	-8310
imately	-8311
itution	-8312
▁Family	-8313
▁Kosovo	-8314
▁Madrid	-8315
▁Nicara	-8316
▁Savior	-8317
▁añadió	-8318
▁buscan	-8319
▁centro	-8320
▁contar	-8321
▁cuánto	-8322
▁dialog	-8323
▁dormir	-8324
▁ejecut	-8325
▁fabric	-8326
▁ingres	-8327
▁joined	-8328
▁legado	-8329
▁llamas	-8330
▁martyr	-8331
▁profan	-8332
▁showed	-8333
▁sought	-8334
▁tantas	-8335
▁warned	-8336
▁weight	-8337
▁árabes	-8338
▁Alabado	-8339
▁Mundial	-8340
▁Sabbath	-8341
▁Without	-8342
▁belleza	-8343
▁civiliz	-8344
▁decades	-8345
▁depende	-8346
▁employe	-8347
▁hermoso	-8348
▁inhabit	-8349
▁locales	-8350
▁noticia	-8351
▁perdonó	-8352
▁praying	-8353
▁recuper	-8354
▁removed	-8355
▁repente	-8356
▁tremble	-8357
▁tuviera	-8358
▁Actually	-8359
▁Montañas	-8360
▁Nuestros	-8361
▁almighty	-8362
▁aquellas	-8363
▁comercio	-8364
▁competit	-8365
▁herencia	-8366
▁holiness	-8367
▁overcome	-8368
▁precious	-8369
▁pudieran	-8370
▁required	-8371
▁silencio	-8372
▁daughters	-8373
▁described	-8374
▁económica	-8375
▁preserved	-8376
▁prioridad	-8377
▁supported	-8378
▁utilizado	-8379
▁Bangladesh	-8380
▁actualidad	-8381
▁appreciate	-8382
▁superficie	-8383
▁alternative	-8384
▁cooperation	-8385
▁declaración	-8386
▁descubierto	-8387
▁fulfillment	-8388
▁fundamental	-8389
▁precisamente	-8390
,'	-8391
16	-8392
1]	-8393
33	-8394
?.	-8395
Ar	-8396
Ma	-8397
RS	-8398
íe	-8399
!».	-8400
5-1	-8401
Not	-8402
Tal	-8403
eso	-8404
jen	-8405
más	-8406
ocr	-8407
osh	-8408
oul	-8409
pen	-8410
uce	-8411
uit	-8412
▁(¡	-8413
▁96	-8414
▁Az	-8415
▁Ok	-8416
▁SO	-8417
Abra	-8418
Give	-8419
Será	-8420
With	-8421
elve	-8422
ends	-8423
fron	-8424
gred	-8425
ibet	-8426
ilia	-8427
ombi	-8428
onos	-8429
oung	-8430
poca	-8431
they	-8432
▁Dar	-8433
▁Hum	-8434
▁[3]	-8435
▁ard	-8436
▁che	-8437
▁dam	-8438
▁dro	-8439
▁lat	-8440
▁rac	-8441
China	-8442
David	-8443
These	-8444
cemos	-8445
cohol	-8446
eyond	-8447
faith	-8448
icies	-8449
igned	-8450
illas	-8451
iosos	-8452
itute	-8453
pring	-8454
▁2010	-8455
▁Best	-8456
▁Gent	-8457
▁Irak	-8458
▁Mand	-8459
▁Taiw	-8460
▁Yeah	-8461
▁daño	-8462
▁dies	-8463
▁flee	-8464
▁gets	-8465
▁held	-8466
▁idol	-8467
▁invo	-8468
▁mass	-8469
▁mere	-8470
▁nube	-8471
▁pide	-8472
▁reír	-8473
▁toca	-8474
▁wake	-8475
▁wild	-8476
▁área	-8477
Quiero	-8478
amblea	-8479
ciales	-8480
▁Etern	-8481
▁Miles	-8482
▁Poder	-8483
▁arrog	-8484
▁banco	-8485
▁busca	-8486
▁emper	-8487
▁energ	-8488
▁hered	-8489
▁incor	-8490
▁lying	-8491
▁marco	-8492
▁occas	-8493
▁oídos	-8494
▁quiet	-8495
▁shoot	-8496
▁title	-8497
Abraham	-8498
Incluso	-8499
ecución	-8500
isiones	-8501
ramient	-8502
▁Azerba	-8503
▁Univer	-8504
▁acceso	-8505
▁advers	-8506
▁debajo	-8507
▁defeat	-8508
▁depart	-8509
▁discíp	-8510
▁doubts	-8511
▁década	-8512
▁enseñó	-8513
▁entero	-8514
▁extern	-8515
▁favour	-8516
▁habéis	-8517
▁impact	-8518
▁legacy	-8519
▁libres	-8520
▁mental	-8521
▁ordenó	-8522
▁perpet	-8523
▁requer	-8524
▁sesión	-8525
▁suerte	-8526
▁tengan	-8527
▁título	-8528
▁Believe	-8529
▁Clinton	-8530
▁Instead	-8531
▁aspecto	-8532
▁carrera	-8533
▁climate	-8534
▁compare	-8535
▁creator	-8536
▁cuántas	-8537
▁descono	-8538
▁diálogo	-8539
▁entered	-8540
▁existir	-8541
▁extraño	-8542
▁follows	-8543
▁forgave	-8544
▁francés	-8545
▁monster	-8546
▁planned	-8547
▁refugio	-8548
▁science	-8549
▁seguirá	-8550
▁species	-8551
▁surface	-8552
▁tendría	-8553
▁termina	-8554
▁unknown	-8555
▁usually	-8556
▁December	-8557
▁Presence	-8558
▁challeng	-8559
▁conforme	-8560
▁creating	-8561
▁ejemplos	-8562
▁elegidos	-8563
▁examples	-8564
▁intellig	-8565
▁posibles	-8566
▁quisiera	-8567
▁rebelión	-8568
▁repeated	-8569
▁trembled	-8570
ativamente	-8571
ientemente	-8572
▁compromet	-8573
▁education	-8574
▁fronteras	-8575
▁invisible	-8576
▁principle	-8577
▁programas	-8578
▁reconstru	-8579
▁religions	-8580
▁separated	-8581
▁strategic	-8582
▁yesterday	-8583
▁abundancia	-8584
▁encontrará	-8585
▁establecer	-8586
▁participar	-8587
▁unexpected	-8588
▁authorities	-8589
▁everlasting	-8590
▁individuals	-8591
▁inheritance	-8592
▁maravilloso	-8593
▁abiertamente	-8594
▁organization	-8595
▁International	-8596
▁personalmente	-8597
▁interpretación	-8598
▁interpretation	-8599
',	-8600
4:	-8601
AY	-8602
DE	-8603
ki	-8604
vv	-8605
áh	-8606
.'"	-8607
2].	-8608
Rus	-8609
emn	-8610
has	-8611
jan	-8612
lac	-8613
leo	-8614
nam	-8615
vio	-8616
yal	-8617
▁3)	-8618
▁51	-8619
▁95	-8620
▁Ay	-8621
▁Yu	-8622
▁[5	-8623
Euro	-8624
agen	-8625
ardo	-8626
atem	-8627
hold	-8628
inte	-8629
onel	-8630
onen	-8631
oney	-8632
oría	-8633
quen	-8634
ring	-8635
turn	-8636
ulta	-8637
ware	-8638
ínci	-8639
▁700	-8640
▁800	-8641
▁Aug	-8642
▁Aut	-8643
▁Blo	-8644
▁Eng	-8645
▁Eve	-8646
▁Omn	-8647
▁Ram	-8648
▁Sky	-8649
▁Tok	-8650
▁bos	-8651
▁cop	-8652
▁eno	-8653
▁már	-8654
▁océ	-8655
▁ído	-8656
antly	-8657
ggers	-8658
graph	-8659
ifies	-8660
ijing	-8661
uelve	-8662
uring	-8663
▁(200	-8664
▁2003	-8665
▁Find	-8666
▁Ingl	-8667
▁Jian	-8668
▁Jord	-8669
▁Read	-8670
▁arch	-8671
▁café	-8672
▁crít	-8673
▁diga	-8674
▁exal	-8675
▁foto	-8676
▁iran	-8677
▁late	-8678
▁odia	-8679
▁orar	-8680
▁rare	-8681
▁reac	-8682
▁ruin	-8683
▁size	-8684
▁sosp	-8685
▁thee	-8686
▁vaca	-8687
▁vast	-8688
ancial	-8689
ensive	-8690
▁Banco	-8691
▁Fondo	-8692
▁Sabed	-8693
▁Space	-8694
▁Texas	-8695
▁breve	-8696
▁carta	-8697
▁clave	-8698
▁costo	-8699
▁decía	-8700
▁descr	-8701
▁desol	-8702
▁drive	-8703
▁entra	-8704
▁golpe	-8705
▁midst	-8706
▁noble	-8707
▁swift	-8708
▁texto	-8709
▁vivió	-8710
vención	-8711
▁Brahma	-8712
▁Hitler	-8713
▁Nelson	-8714
▁Ningún	-8715
▁Thomas	-8716
▁affirm	-8717
▁bebida	-8718
▁celest	-8719
▁concre	-8720
▁conect	-8721
▁darles	-8722
▁double	-8723
▁evento	-8724
▁explan	-8725
▁garden	-8726
▁middle	-8727
▁miente	-8728
▁niegan	-8729
▁online	-8730
▁openly	-8731
▁ordena	-8732
▁pedido	-8733
▁recent	-8734
▁ritual	-8735
▁robots	-8736
▁sabían	-8737
▁slaves	-8738
▁thirty	-8739
▁vieron	-8740
▁volvió	-8741
▁votado	-8742
▁winter	-8743
Everyone	-8744
igrantes	-8745
tructure	-8746
▁Charlie	-8747
▁Clement	-8748
▁Debemos	-8749
▁England	-8750
▁Tampoco	-8751
▁appropr	-8752
▁aproxim	-8753
▁asuntos	-8754
▁cerebro	-8755
▁conserv	-8756
▁corrupt	-8757
▁cuerpos	-8758
▁cuántos	-8759
▁efforts	-8760
▁growing	-8761
▁habrían	-8762
▁hearing	-8763
▁imagine	-8764
▁incluye	-8765
▁moments	-8766
▁options	-8767
▁parecía	-8768
▁persist	-8769
▁pruebas	-8770
▁refiere	-8771
▁session	-8772
▁señales	-8773
▁treinta	-8774
▁técnica	-8775
▁Justicia	-8776
▁abogados	-8777
▁achieved	-8778
▁caracter	-8779
▁contains	-8780
▁criminal	-8781
▁discurso	-8782
▁entiende	-8783
▁exchange	-8784
▁mencionó	-8785
▁monstruo	-8786
▁producir	-8787
▁realizar	-8788
▁realized	-8789
▁revelada	-8790
▁sacrific	-8791
▁separado	-8792
▁sucedido	-8793
▁Christmas	-8794
▁Nicaragua	-8795
▁conscious	-8796
▁dangerous	-8797
▁determine	-8798
▁permitido	-8799
▁población	-8800
▁precisely	-8801
▁treatment	-8802
▁associated	-8803
▁herramient	-8804
▁incrédulos	-8805
▁nacionales	-8806
▁pertenecen	-8807
▁plenamente	-8808
▁recognized	-8809
▁scientists	-8810
▁seguidores	-8811
▁understands	-8812
▁profundamente	-8813
**	-8814
34	-8815
90	-8816
:4	-8817
IF	-8818
II	-8819
RI	-8820
ez	-8821
iy	-8822
áf	-8823
ód	-8824
4].	-8825
500	-8826
Nos	-8827
ahu	-8828
att	-8829
die	-8830
dis	-8831
ecy	-8832
gue	-8833
ror	-8834
umb	-8835
ánt	-8836
▁(“	-8837
▁5)	-8838
▁97	-8839
appy	-8840
años	-8841
cuál	-8842
egal	-8843
itan	-8844
olve	-8845
onto	-8846
pair	-8847
teen	-8848
▁24/	-8849
▁Air	-8850
▁Cla	-8851
▁Cur	-8852
▁alt	-8853
▁mel	-8854
▁pet	-8855
▁ran	-8856
▁rap	-8857
▁sec	-8858
Tengo	-8859
alled	-8860
aring	-8861
brero	-8862
ening	-8863
iance	-8864
iegos	-8865
inter	-8866
rende	-8867
ufact	-8868
urity	-8869
▁Casi	-8870
▁Econ	-8871
▁Hace	-8872
▁Jean	-8873
▁Leon	-8874
▁NASA	-8875
▁Sign	-8876
▁Terc	-8877
▁Warn	-8878
▁craz	-8879
▁cred	-8880
▁daré	-8881
▁egip	-8882
▁film	-8883
▁foot	-8884
▁humo	-8885
▁mala	-8886
▁máqu	-8887
▁márt	-8888
▁pena	-8889
▁quím	-8890
▁race	-8891
▁subs	-8892
Recuer	-8893
bruary	-8894
ercial	-8895
▁2,000	-8896
▁2015,	-8897
▁ALLAH	-8898
▁April	-8899
▁Irish	-8900
▁Party	-8901
▁afric	-8902
▁apply	-8903
▁basis	-8904
▁bende	-8905
▁canal	-8906
▁exclu	-8907
▁fecha	-8908
▁grado	-8909
▁hecha	-8910
▁leído	-8911
▁llena	-8912
▁motiv	-8913
▁muera	-8914
▁mueve	-8915
▁norte	-8916
▁omnis	-8917
▁opens	-8918
▁ordin	-8919
▁perpe	-8920
▁plain	-8921
▁pocas	-8922
▁raise	-8923
▁retir	-8924
▁socio	-8925
▁style	-8926
▁vacío	-8927
▁época	-8928
amentos	-8929
ibución	-8930
olucion	-8931
▁Direct	-8932
▁Ejérci	-8933
▁Moscow	-8934
▁Muchas	-8935
▁Parece	-8936
▁Please	-8937
▁Simple	-8938
▁Things	-8939
▁adquir	-8940
▁attain	-8941
▁beauty	-8942
▁bloque	-8943
▁broken	-8944
▁compre	-8945
▁consci	-8946
▁critic	-8947
▁cuarto	-8948
▁enorme	-8949
▁execut	-8950
▁expuls	-8951
▁faraón	-8952
▁heroes	-8953
▁héroes	-8954
▁ignore	-8955
▁leaves	-8956
▁lesson	-8957
▁madres	-8958
▁obtain	-8959
▁orient	-8960
▁origen	-8961
▁pastor	-8962
▁perdió	-8963
▁prophe	-8964
▁proved	-8965
▁página	-8966
▁tengas	-8967
▁tesoro	-8968
▁thinks	-8969
▁twenty	-8970
atically	-8971
olutions	-8972
▁Beijing	-8973
▁Exalted	-8974
▁October	-8975
▁address	-8976
▁aparece	-8977
▁automóv	-8978
▁concern	-8979
▁consigo	-8980
▁cuentas	-8981
▁decidir	-8982
▁decidió	-8983
▁decirle	-8984
▁defensa	-8985
▁desment	-8986
▁detener	-8987
▁enjoyed	-8988
▁humanas	-8989
▁inesper	-8990
▁juicios	-8991
▁juzgará	-8992
▁lawyers	-8993
▁lección	-8994
▁medidas	-8995
▁mothers	-8996
▁olvidar	-8997
▁parecer	-8998
▁propose	-8999
▁reflejo	-9000
▁retorno	-9001
▁reveals	-9002
▁semilla	-9003
▁silence	-9004
▁sisters	-9005
▁supreme	-9006
▁treated	-9007
▁tremend	-9008
▁versión	-9009
▁violent	-9010
▁Moreover	-9011
▁Powerful	-9012
▁becoming	-9013
▁comunión	-9014
▁conjunto	-9015
▁dialogue	-9016
▁disfruta	-9017
▁division	-9018
▁edificio	-9019
▁encontró	-9020
▁esclavos	-9021
▁evidente	-9022
▁importar	-9023
▁manufact	-9024
▁official	-9025
▁poderosa	-9026
▁priority	-9027
▁proposal	-9028
▁rechazan	-9029
▁recuerdo	-9030
▁teaching	-9031
▁teniendo	-9032
▁treasure	-9033
▁vinieron	-9034
▁weakness	-9035
▁Sometimes	-9036
▁concluded	-9037
▁considera	-9038
▁consumers	-9039
▁continued	-9040
▁diciembre	-9041
▁económico	-9042
▁entienden	-9043
▁immediate	-9044
▁necesaria	-9045
▁versículo	-9046
▁anteriores	-9047
▁determined	-9048
▁increasing	-9049
▁refugiados	-9050
▁requisitos	-9051
▁servidores	-9052
▁destination	-9053
▁dondequiera	-9054
▁importantly	-9055
▁inhabitants	-9056
▁necesidades	-9057
▁persecución	-9058
▁traditional	-9059
▁Christianity	-9060
▁continuación	-9061
▁oficialmente	-9062
▁specifically	-9063
▁recientemente	-9064
-7	-9065
76	-9066
:6	-9067
CC	-9068
ET	-9069
Go	-9070
NO	-9071
fi	-9072
ól	-9073
Mis	-9074
ari	-9075
hes	-9076
mít	-9077
ser	-9078
ubo	-9079
ócr	-9080
▁(5	-9081
▁5,	-9082
▁Da	-9083
▁Ga	-9084
▁hy	-9085
abul	-9086
acer	-9087
amas	-9088
ancy	-9089
atas	-9090
berg	-9091
ffee	-9092
ifer	-9093
ivia	-9094
mino	-9095
nico	-9096
rari	-9097
will	-9098
▁144	-9099
▁Cro	-9100
▁Den	-9101
▁Dig	-9102
▁Fal	-9103
▁Fre	-9104
▁Lab	-9105
▁Leo	-9106
▁Pas	-9107
▁Pet	-9108
▁Rio	-9109
▁Ron	-9110
▁Six	-9111
▁Viv	-9112
▁Yah	-9113
▁alc	-9114
▁coc	-9115
▁cut	-9116
▁dul	-9117
▁enm	-9118
▁hur	-9119
▁lóg	-9120
▁mía	-9121
▁sha	-9122
abeth	-9123
aking	-9124
arlos	-9125
enetr	-9126
enten	-9127
izada	-9128
otion	-9129
quete	-9130
there	-9131
venir	-9132
▁Debe	-9133
▁East	-9134
▁Hill	-9135
▁Matt	-9136
▁Need	-9137
▁Prov	-9138
▁Take	-9139
▁Tres	-9140
▁barr	-9141
▁chem	-9142
▁lord	-9143
▁paid	-9144
▁rend	-9145
▁risk	-9146
Surely	-9147
anyahu	-9148
aterra	-9149
▁Among	-9150
▁Greek	-9151
▁Kelly	-9152
▁Moscú	-9153
▁Mundo	-9154
▁Saudi	-9155
▁Times	-9156
▁Under	-9157
▁Unido	-9158
▁abril	-9159
▁arreg	-9160
▁bread	-9161
▁campo	-9162
▁colle	-9163
▁conex	-9164
▁crazy	-9165
▁dying	-9166
▁equil	-9167
▁focus	-9168
▁hated	-9169
▁odian	-9170
▁offic	-9171
▁palma	-9172
▁plant	-9173
▁sends	-9174
▁serás	-9175
▁ships	-9176
▁stage	-9177
▁teléf	-9178
▁verlo	-9179
Sabemos	-9180
cession	-9181
izabeth	-9182
ization	-9183
ortales	-9184
▁Health	-9185
▁Island	-9186
▁Oliver	-9187
▁Though	-9188
▁Wilson	-9189
▁asocia	-9190
▁cambió	-9191
▁compon	-9192
▁convin	-9193
▁desean	-9194
▁discul	-9195
▁flight	-9196
▁fracas	-9197
▁histór	-9198
▁imagen	-9199
▁listos	-9200
▁nights	-9201
▁pasada	-9202
▁pasará	-9203
▁pasión	-9204
▁powers	-9205
▁respet	-9206
▁sooner	-9207
▁terren	-9208
▁traerá	-9209
▁vivirá	-9210
▁volunt	-9211
taciones	-9212
▁Ferrari	-9213
▁Italian	-9214
▁alcance	-9215
▁alcohol	-9216
▁borders	-9217
▁creando	-9218
▁declaró	-9219
▁desired	-9220
▁discern	-9221
▁divided	-9222
▁especie	-9223
▁esperan	-9224
▁express	-9225
▁insepar	-9226
▁llevará	-9227
▁martyrs	-9228
▁network	-9229
▁octubre	-9230
▁partido	-9231
▁perpetr	-9232
▁priests	-9233
▁sientas	-9234
▁testify	-9235
▁February	-9236
▁Infierno	-9237
▁antiguos	-9238
▁anywhere	-9239
▁attitude	-9240
▁conquist	-9241
▁document	-9242
▁electrón	-9243
▁entiendo	-9244
▁entirely	-9245
▁explains	-9246
▁finished	-9247
▁instante	-9248
▁instruct	-9249
▁invented	-9250
▁medicine	-9251
▁mártires	-9252
▁offering	-9253
▁paradise	-9254
▁pidiendo	-9255
▁policies	-9256
▁secretos	-9257
▁Alexander	-9258
▁Netanyahu	-9259
▁comenzado	-9260
▁confirmed	-9261
▁contained	-9262
▁controlar	-9263
▁estuviera	-9264
▁followers	-9265
▁forbidden	-9266
▁increased	-9267
▁messenger	-9268
▁permitted	-9269
▁remaining	-9270
▁semejante	-9271
▁substance	-9272
▁technical	-9273
▁tradition	-9274
▁Inglaterra	-9275
▁activities	-9276
▁cumpleaños	-9277
▁especiales	-9278
▁meditación	-9279
▁officially	-9280
▁prophecies	-9281
▁referencia	-9282
▁sacerdotes	-9283
▁transgress	-9284
▁actividades	-9285
▁appropriate	-9286
▁distinguish	-9287
▁encontraron	-9288
▁inmigración	-9289
▁possibility	-9290
▁unbelievers	-9291
finitivamente	-9292
▁Resurrección	-9293
▁desarrollado	-9294
▁específicamente	-9295
!.	-9296
35	-9297
47	-9298
5?	-9299
CA	-9300
Dr	-9301
IM	-9302
PT	-9303
UN	-9304
tó	-9305
íg	-9306
▁’	-9307
-10	-9308
Act	-9309
Res	-9310
apt	-9311
bon	-9312
cib	-9313
dan	-9314
dea	-9315
iba	-9316
ops	-9317
ump	-9318
via	-9319
zgo	-9320
▁(¿	-9321
▁1:	-9322
▁57	-9323
▁6,	-9324
▁9.	-9325
▁RE	-9326
▁az	-9327
▁».	-9328
alos	-9329
ball	-9330
ched	-9331
city	-9332
cope	-9333
cuch	-9334
eles	-9335
eses	-9336
greg	-9337
here	-9338
icaz	-9339
ngel	-9340
quis	-9341
uild	-9342
▁125	-9343
▁180	-9344
▁Bat	-9345
▁Bol	-9346
▁Eva	-9347
▁Lle	-9348
▁ONU	-9349
▁Yan	-9350
▁aim	-9351
▁cóm	-9352
▁etc	-9353
▁eye	-9354
▁ice	-9355
▁mec	-9356
▁sac	-9357
▁wal	-9358
▁ése	-9359
Nadie	-9360
denes	-9361
icity	-9362
night	-9363
ongue	-9364
ports	-9365
verty	-9366
yeron	-9367
▁1998	-9368
▁2004	-9369
▁Army	-9370
▁Desp	-9371
▁High	-9372
▁ISIS	-9373
▁Jane	-9374
▁Obed	-9375
▁abst	-9376
▁asks	-9377
▁cubr	-9378
▁debo	-9379
▁doce	-9380
▁flor	-9381
▁gate	-9382
▁gest	-9383
▁haré	-9384
▁hosp	-9385
▁jefe	-9386
▁junt	-9387
▁lied	-9388
▁luck	-9389
▁mach	-9390
▁mues	-9391
▁nave	-9392
▁nutr	-9393
▁tama	-9394
▁viva	-9395
▁zone	-9396
Quizás	-9397
athers	-9398
cuenta	-9399
itious	-9400
▁(...)	-9401
▁2011,	-9402
▁Aaron	-9403
▁Están	-9404
▁Group	-9405
▁Heart	-9406
▁Marie	-9407
▁album	-9408
▁appar	-9409
▁arbit	-9410
▁brill	-9411
▁culto	-9412
▁daily	-9413
▁deeds	-9414
▁embra	-9415
▁entró	-9416
▁espal	-9417
▁estat	-9418
▁exerc	-9419
▁fondo	-9420
▁hacía	-9421
▁homes	-9422
▁loses	-9423
▁music	-9424
▁pájar	-9425
▁relev	-9426
▁serie	-9427
▁speed	-9428
▁suici	-9429
▁sumin	-9430
▁twice	-9431
▁unity	-9432
▁vital	-9433
Después	-9434
Nuestra	-9435
vention	-9436
▁Guatem	-9437
▁Person	-9438
▁Regard	-9439
▁Transf	-9440
▁accoun	-9441
▁awaken	-9442
▁burden	-9443
▁congel	-9444
▁cuarta	-9445
▁decade	-9446
▁deport	-9447
▁eligió	-9448
▁excell	-9449
▁firmly	-9450
▁infiel	-9451
▁jardín	-9452
▁lament	-9453
▁manten	-9454
▁matado	-9455
▁motivo	-9456
▁médico	-9457
▁perish	-9458
▁pursue	-9459
▁quinto	-9460
▁reflex	-9461
▁saints	-9462
▁secure	-9463
▁suceda	-9464
▁sábado	-9465
▁veinte	-9466
▁vivido	-9467
ipotente	-9468
▁Algunas	-9469
▁Maestro	-9470
▁Navidad	-9471
▁adorado	-9472
▁agentes	-9473
▁armonía	-9474
▁attempt	-9475
▁billion	-9476
▁compreh	-9477
▁confron	-9478
▁dealing	-9479
▁defense	-9480
▁desafío	-9481
▁dollars	-9482
▁earthqu	-9483
▁enfermo	-9484
▁febrero	-9485
▁harmony	-9486
▁killing	-9487
▁observe	-9488
▁oficial	-9489
▁prepare	-9490
▁proceed	-9491
▁pública	-9492
▁release	-9493
▁replace	-9494
▁tesoros	-9495
▁término	-9496
▁version	-9497
▁visited	-9498
▁víctima	-9499
▁Covenant	-9500
▁Imperial	-9501
▁Republic	-9502
▁Wherever	-9503
▁approved	-9504
▁argument	-9505
▁bloggers	-9506
▁bringing	-9507
▁declared	-9508
▁distance	-9509
▁hermanas	-9510
▁internet	-9511
▁llamamos	-9512
▁llegaron	-9513
▁ministro	-9514
▁observar	-9515
▁possibly	-9516
▁profound	-9517
▁refugees	-9518
▁relacion	-9519
▁responde	-9520
▁segundos	-9521
▁tengamos	-9522
▁usuarios	-9523
▁actividad	-9524
▁beneficio	-9525
▁comenzará	-9526
▁compañero	-9527
▁continuar	-9528
▁desmiente	-9529
▁destruido	-9530
▁distancia	-9531
▁enfrentar	-9532
▁expresión	-9533
▁guarantee	-9534
▁historias	-9535
▁impuestos	-9536
▁literally	-9537
▁ocasiones	-9538
▁profecías	-9539
▁provision	-9540
▁returning	-9541
▁surrender	-9542
▁universal	-9543
▁considerar	-9544
▁democratic	-9545
▁dispuestos	-9546
▁encuentras	-9547
▁interested	-9548
▁liberación	-9549
▁population	-9550
▁vulnerable	-9551
▁worshipped	-9552
▁Furthermore	-9553
▁commandment	-9554
▁immigration	-9555
▁instruction	-9556
▁intenciones	-9557
▁dificultades	-9558
▁sentimientos	-9559
▁declaraciones	-9560
▁organizaciones	-9561
%.	-9562
14	-9563
27	-9564
88	-9565
93	-9566
LY	-9567
Lu	-9568
Mt	-9569
PA	-9570
Sé	-9571
[3	-9572
ko	-9573
oo	-9574
qq	-9575
-19	-9576
11]	-9577
200	-9578
Sus	-9579
iev	-9580
iez	-9581
kel	-9582
lot	-9583
mus	-9584
ole	-9585
umn	-9586
’”.	-9587
▁AL	-9588
▁CH	-9589
▁bi	-9590
▁cy	-9591
From	-9592
Ning	-9593
acto	-9594
cest	-9595
date	-9596
ello	-9597
eman	-9598
eper	-9599
iant	-9600
iguo	-9601
ijan	-9602
inco	-9603
inda	-9604
muer	-9605
ogra	-9606
omos	-9607
sabe	-9608
sels	-9609
some	-9610
thur	-9611
uera	-9612
what	-9613
xual	-9614
▁Ali	-9615
▁Dak	-9616
▁Lis	-9617
▁Mir	-9618
▁Naz	-9619
▁Noé	-9620
▁Sat	-9621
▁Señ	-9622
▁bom	-9623
▁bor	-9624
▁box	-9625
▁cry	-9626
▁fla	-9627
▁fum	-9628
▁gun	-9629
▁huh	-9630
▁kil	-9631
▁mez	-9632
▁mín	-9633
▁ove	-9634
▁tío	-9635
Crees	-9636
Estos	-9637
Today	-9638
agues	-9639
anmar	-9640
astre	-9641
athan	-9642
chang	-9643
erous	-9644
erves	-9645
ganos	-9646
itzer	-9647
oston	-9648
presa	-9649
rency	-9650
uliar	-9651
ódigo	-9652
▁Alma	-9653
▁Barn	-9654
▁Both	-9655
▁Brad	-9656
▁Dese	-9657
▁DiEM	-9658
▁Land	-9659
▁Nick	-9660
▁Otro	-9661
▁Rick	-9662
▁Said	-9663
▁boys	-9664
▁cama	-9665
▁date	-9666
▁diré	-9667
▁esco	-9668
▁mesa	-9669
▁page	-9670
▁sepa	-9671
▁uses	-9672
▁vend	-9673
Además	-9674
People	-9675
Render	-9676
erazgo	-9677
erself	-9678
iatura	-9679
isions	-9680
itales	-9681
umenta	-9682
áticos	-9683
íncipe	-9684
▁2007,	-9685
▁Being	-9686
▁Brian	-9687
▁Corey	-9688
▁Glory	-9689
▁Grand	-9690
▁Koran	-9691
▁Malta	-9692
▁Short	-9693
▁Sobre	-9694
▁Still	-9695
▁Vamos	-9696
▁acaso	-9697
▁ambas	-9698
▁centr	-9699
▁cerve	-9700
▁chain	-9701
▁chica	-9702
▁dando	-9703
▁desem	-9704
▁diseñ	-9705
▁doctr	-9706
▁encou	-9707
▁enorm	-9708
▁games	-9709
▁hagan	-9710
▁hates	-9711
▁image	-9712
▁memor	-9713
▁minor	-9714
▁photo	-9715
▁pidió	-9716
▁prede	-9717
▁quebr	-9718
▁quiso	-9719
▁recup	-9720
▁renun	-9721
▁shame	-9722
▁unite	-9723
▁users	-9724
▁August	-9725
▁Beyond	-9726
▁Blanca	-9727
▁Consid	-9728
▁Contin	-9729
▁Divine	-9730
▁Hungar	-9731
▁Others	-9732
▁Puerto	-9733
▁School	-9734
▁aconte	-9735
▁afirma	-9736
▁arrive	-9737
▁ascend	-9738
▁calcul	-9739
▁coches	-9740
▁creada	-9741
▁decree	-9742
▁derram	-9743
▁geopol	-9744
▁harder	-9745
▁implac	-9746
▁irland	-9747
▁límite	-9748
▁moneda	-9749
▁oferta	-9750
▁option	-9751
▁peligr	-9752
▁peregr	-9753
▁piedra	-9754
▁podéis	-9755
▁priest	-9756
▁remove	-9757
▁serves	-9758
▁señaló	-9759
▁siglos	-9760
▁spread	-9761
▁traído	-9762
▁triunf	-9763
▁unable	-9764
▁unlike	-9765
▁virtud	-9766
Queremos	-9767
justment	-9768
▁Article	-9769
▁Despite	-9770
▁applied	-9771
▁capitán	-9772
▁compens	-9773
▁congreg	-9774
▁conocía	-9775
▁content	-9776
▁context	-9777
▁demanda	-9778
▁deserve	-9779
▁esposas	-9780
▁estruct	-9781
▁hacerse	-9782
▁helping	-9783
▁iguales	-9784
▁mirando	-9785
▁oficina	-9786
▁players	-9787
▁pobreza	-9788
▁privile	-9789
▁radical	-9790
▁registr	-9791
▁secrets	-9792
▁seremos	-9793
▁setting	-9794
▁sienten	-9795
▁somehow	-9796
▁stories	-9797
▁superar	-9798
▁sustitu	-9799
▁trabaja	-9800
▁vecinos	-9801
▁volverá	-9802
▁órdenes	-9803
▁National	-9804
▁adecuado	-9805
▁appeared	-9806
▁continúa	-9807
▁creature	-9808
▁criatura	-9809
▁equilibr	-9810
▁especies	-9811
▁estrella	-9812
▁europeas	-9813
▁immortal	-9814
▁inmortal	-9815
▁invierno	-9816
▁ministry	-9817
▁multitud	-9818
▁overturn	-9819
▁peculiar	-9820
▁primeras	-9821
▁privileg	-9822
▁vuestras	-9823
▁warnings	-9824
áticamente	-9825
▁Elizabeth	-9826
▁Guatemala	-9827
▁advantage	-9828
▁eternidad	-9829
▁framework	-9830
▁presentes	-9831
▁prohibido	-9832
▁sacerdote	-9833
▁similares	-9834
▁statement	-9835
▁terminará	-9836
▁treasures	-9837
▁additional	-9838
▁commercial	-9839
▁compromiso	-9840
▁específica	-9841
▁insignific	-9842
▁ministerio	-9843
▁reconocido	-9844
▁revolución	-9845
▁sobrevivir	-9846
▁television	-9847
▁alternativa	-9848
▁desarrollar	-9849
▁diferencias	-9850
▁encontrarán	-9851
▁explanation	-9852
▁intercesión	-9853
▁participate	-9854
▁persecution	-9855
▁intelligence	-9856
▁literalmente	-9857
▁opportunities	-9858
▁relationships	-9859
▁reconciliación	-9860
▁reconciliation	-9861
▁reconocimiento	-9862
▁aproximadamente	-9863
-9	-9864
6:	-9865
:8	-9866
CO	-9867
TO	-9868
eh	-9869
ii	-9870
Ese	-9871
ILL	-9872
]".	-9873
afa	-9874
amá	-9875
avi	-9876
clu	-9877
cro	-9878
ema	-9879
ián	-9880
ows	-9881
pat	-9882
rob	-9883
uve	-9884
vas	-9885
yas	-9886
ást	-9887
▁63	-9888
▁IN	-9889
▁Ty	-9890
▁[3	-9891
▁pu	-9892
▁ál	-9893
▁ín	-9894
Está	-9895
Sura	-9896
ards	-9897
aret	-9898
arle	-9899
arsh	-9900
ason	-9901
▁	-9902
e	-9903
a	-9904
o	-9905
s	-9906
n	-9907
i	-9908
t	-9909
r	-9910
l	-9911
d	-9912
u	-9913
h	-9914
c	-9915
m	-9916
p	-9917
.	-9918
y	-9919
f	-9920
g	-9921
b	-9922
,	-9923
v	-9924
w	-9925
q	-9926
A	-9927
D	-9928
á	-9929
E	-9930
I	-9931
í	-9932
T	-9933
k	-9934
G	-9935
"	-9936
S	-9937
ó	-9938
”	-9939
M	-9940
j	-9941
P	-9942
C	-9943
’	-9944
é	-9945
H	-9946
“	-9947
z	-9948
L	-9949
:	-9950
?	-9951
0	-9952
1	-9953
!	-9954
N	-9955
W	-9956
'	-9957
Y	-9958
B	-9959
)	-9960
x	-9961
(	-9962
ñ	-9963
2	-9964
-	-9965
O	-9966
R	-9967
F	-9968
¿	-9969
[	-9970
]	-9971
J	-9972
3	-9973
ú	-9974
5	-9975
9	-9976
U	-9977
¡	-9978
4	-9979
;	-9980
6	-9981
7	-9982
8	-9983
É	-9984
V	-9985
Q	-9986
–	-9987
»	-9988
K	-9989
«	-9990
—	-9991
/	-9992
‘	-9993
*	-9994
%	-9995
