<pad>	0
<unk>	0
<s>	0
</s>	0
er	-0
en	-1
in	-2
ch	-3
▁a	-4
▁t	-5
▁d	-6
es	-7
on	-8
un	-9
it	-10
or	-11
▁s	-12
an	-13
he	-14
is	-15
at	-16
ie	-17
▁S	-18
re	-19
▁w	-20
▁f	-21
ar	-22
al	-23
te	-24
▁the	-25
▁b	-26
le	-27
▁in	-28
▁o	-29
▁m	-30
ro	-31
▁A	-32
as	-33
▁an	-34
▁e	-35
us	-36
ur	-37
▁c	-38
ing	-39
▁p	-40
▁un	-41
ion	-42
ich	-43
▁D	-44
ge	-45
▁B	-46
▁T	-47
▁v	-48
▁M	-49
el	-50
il	-51
▁P	-52
ung	-53
▁and	-54
▁of	-55
ic	-56
▁F	-57
om	-58
ig	-59
ent	-60
▁und	-61
ed	-62
▁h	-63
▁I	-64
▁n	-65
st	-66
▁W	-67
et	-68
▁to	-69
▁E	-70
▁C	-71
ut	-72
▁H	-73
▁G	-74
ol	-75
ter	-76
ra	-77
▁der	-78
im	-79
▁ein	-80
▁R	-81
▁K	-82
▁L	-83
▁die	-84
▁z	-85
ir	-86
▁g	-87
ten	-88
▁is	-89
ers	-90
▁l	-91
um	-92
em	-93
ation	-94
ct	-95
am	-96
hr	-97
uf	-98
den	-99
der	-100
▁V	-101
▁be	-102
iv	-103
▁k	-104
▁1	-105
de	-106
eit	-107
▁th	-108
▁for	-109
ab	-110
▁N	-111
▁y	-112
▁(	-113
ll	-114
▁2	-115
ot	-116
ow	-117
ck	-118
ür	-119
▁von	-120
ier	-121
ach	-122
ou	-123
ber	-124
▁re	-125
and	-126
ess	-127
▁-	-128
ts	-129
os	-130
ies	-131
ith	-132
▁U	-133
est	-134
lich	-135
▁In	-136
la	-137
▁Sie	-138
ce	-139
uch	-140
sch	-141
▁on	-142
▁O	-143
▁with	-144
gen	-145
▁mit	-146
▁zu	-147
ls	-148
▁für	-149
ad	-150
kt	-151
ly	-152
▁St	-153
ein	-154
isch	-155
pp	-156
▁pro	-157
our	-158
▁Z	-159
ul	-160
id	-161
if	-162
▁st	-163
ind	-164
▁den	-165
▁The	-166
▁auf	-167
ere	-168
ay	-169
▁r	-170
ver	-171
00	-172
▁das	-173
ort	-174
▁J	-175
▁ge	-176
icht	-177
ien	-178
▁An	-179
▁im	-180
rom	-181
ist	-182
▁ist	-183
▁con	-184
ik	-185
oo	-186
art	-187
▁er	-188
ib	-189
▁des	-190
nen	-191
igh	-192
▁you	-193
pe	-194
ote	-195
▁ver	-196
ag	-197
ne	-198
ate	-199
qu	-200
for	-201
ill	-202
▁Sch	-203
▁or	-204
ungen	-205
her	-206
end	-207
ine	-208
▁are	-209
▁from	-210
ment	-211
▁se	-212
▁ne	-213
ste	-214
op	-215
ff	-216
ass	-217
ug	-218
..	-219
▁Ver	-220
▁Re	-221
ve	-222
▁wh	-223
ell	-224
men	-225
omp	-226
und	-227
ust	-228
▁de	-229
▁as	-230
ant	-231
ity	-232
▁aus	-233
ak	-234
du	-235
ub	-236
ann	-237
ive	-238
ft	-239
▁ex	-240
age	-241
▁Pro	-242
fer	-243
▁Un	-244
ip	-245
ap	-246
up	-247
ah	-248
ze	-249
▁eine	-250
01	-251
▁3	-252
▁wir	-253
we	-254
ran	-255
all	-256
▁that	-257
▁your	-258
▁Die	-259
og	-260
ost	-261
▁it	-262
eb	-263
ain	-264
ial	-265
mer	-266
ick	-267
▁us	-268
od	-269
▁als	-270
▁by	-271
▁at	-272
ert	-273
ure	-274
än	-275
ens	-276
ungs	-277
▁dem	-278
über	-279
▁sich	-280
igen	-281
▁j	-282
▁ch	-283
▁Be	-284
ard	-285
▁oder	-286
form	-287
▁he	-288
oll	-289
ahr	-290
▁i	-291
ia	-292
ast	-293
are	-294
se	-295
ice	-296
▁le	-297
▁all	-298
iel	-299
iz	-300
able	-301
ction	-302
▁ab	-303
▁wer	-304
▁Sp	-305
esch	-306
▁dies	-307
▁Fl	-308
▁nach	-309
▁Hote	-310
ang	-311
▁Th	-312
ön	-313
ire	-314
▁uns	-315
ite	-316
be	-317
cc	-318
ud	-319
▁201	-320
ted	-321
ark	-322
▁so	-323
▁can	-324
▁über	-325
ook	-326
▁we	-327
▁werden	-328
▁me	-329
aus	-330
▁sh	-331
ät	-332
hen	-333
ben	-334
ont	-335
▁ent	-336
ail	-337
ru	-338
erv	-339
ight	-340
▁um	-341
▁En	-342
ern	-343
▁Er	-344
ore	-345
▁sch	-346
▁4	-347
sp	-348
och	-349
ld	-350
ign	-351
▁–	-352
▁ha	-353
hal	-354
ile	-355
▁nicht	-356
lo	-357
ige	-358
ide	-359
▁5	-360
ischen	-361
per	-362
tern	-363
▁"	-364
urch	-365
▁Ar	-366
▁pr	-367
ition	-368
▁comp	-369
enn	-370
oc	-371
▁man	-372
▁not	-373
pt	-374
▁al	-375
out	-376
▁Se	-377
ack	-378
▁sind	-379
zen	-380
▁this	-381
ün	-382
au	-383
com	-384
▁will	-385
hl	-386
▁es	-387
ac	-388
ise	-389
ual	-390
tell	-391
ous	-392
ated	-393
fü	-394
▁Y	-395
▁Ch	-396
▁was	-397
▁Ih	-398
ieren	-399
ss	-400
th	-401
▁We	-402
▁Ein	-403
iert	-404
af	-405
▁kön	-406
▁Te	-407
▁sp	-408
los	-409
oun	-410
aten	-411
me	-412
▁ad	-413
▁De	-414
ations	-415
▁wird	-416
ork	-417
omm	-418
ue	-419
▁Al	-420
▁cont	-421
ther	-422
▁auch	-423
ree	-424
▁&	-425
▁einer	-426
▁am	-427
chen	-428
▁have	-429
▁bei	-430
ical	-431
▁einem	-432
▁our	-433
ild	-434
ry	-435
ov	-436
keit	-437
▁ro	-438
ische	-439
ear	-440
...	-441
iss	-442
▁wie	-443
utz	-444
tet	-445
▁einen	-446
ord	-447
ör	-448
formation	-449
▁sein	-450
beit	-451
hn	-452
yste	-453
chn	-454
pr	-455
ase	-456
▁en	-457
▁können	-458
uss	-459
auf	-460
▁res	-461
erm	-462
gr	-463
ater	-464
ew	-465
aben	-466
ult	-467
▁te	-468
ions	-469
ance	-470
che	-471
ong	-472
▁6	-473
▁vor	-474
act	-475
rie	-476
one	-477
ob	-478
etz	-479
▁zur	-480
glich	-481
▁Unter	-482
▁dass	-483
▁Das	-484
av	-485
▁Pr	-486
ome	-487
elt	-488
▁For	-489
▁sie	-490
les	-491
gt	-492
geb	-493
▁acc	-494
ect	-495
ner	-496
▁has	-497
ystem	-498
ück	-499
▁zum	-500
▁Aus	-501
lie	-502
iew	-503
ond	-504
▁Hotel	-505
ings	-506
▁tra	-507
▁app	-508
vel	-509
ime	-510
land	-511
own	-512
▁Ab	-513
ish	-514
▁per	-515
▁also	-516
▁Ihr	-517
erson	-518
▁hat	-519
▁durch	-520
▁19	-521
▁Mit	-522
cl	-523
ood	-524
ian	-525
▁bes	-526
lat	-527
▁which	-528
▁unter	-529
▁Le	-530
▁Der	-531
ink	-532
▁up	-533
ahl	-534
ok	-535
uro	-536
mp	-537
ents	-538
io	-539
ount	-540
▁Sh	-541
ram	-542
tra	-543
rit	-544
ame	-545
▁qu	-546
line	-547
tel	-548
wer	-549
▁10	-550
är	-551
▁spe	-552
ale	-553
heit	-554
lay	-555
ary	-556
▁Q	-557
▁gro	-558
ger	-559
liche	-560
▁Ihre	-561
▁produ	-562
▁su	-563
tz	-564
▁7	-565
▁ar	-566
fl	-567
ake	-568
amp	-569
ph	-570
ors	-571
▁Produ	-572
lichen	-573
▁Auf	-574
▁haben	-575
unden	-576
▁kann	-577
▁do	-578
▁more	-579
olog	-580
ersch	-581
▁Ex	-582
dern	-583
aft	-584
▁fin	-585
▁8	-586
▁unser	-587
of	-588
ht	-589
▁wur	-590
ata	-591
atur	-592
sten	-593
tw	-594
▁war	-595
ges	-596
▁Hotels	-597
▁|	-598
ank	-599
fe	-600
).	-601
dition	-602
to	-603
immer	-604
▁part	-605
ktion	-606
rip	-607
▁Gr	-608
ices	-609
▁bis	-610
öglich	-611
lin	-612
▁/	-613
fen	-614
ute	-615
▁„	-616
▁fl	-617
ble	-618
▁Or	-619
port	-620
ange	-621
▁9	-622
reich	-623
▁Ge	-624
▁He	-625
eine	-626
ool	-627
▁gen	-628
ons	-629
ER	-630
▁out	-631
ebs	-632
osten	-633
ade	-634
▁It	-635
▁So	-636
ould	-637
▁Wir	-638
▁200	-639
▁Ad	-640
ace	-641
▁Pre	-642
▁dis	-643
▁Euro	-644
▁time	-645
lic	-646
pro	-647
ugh	-648
lick	-649
cial	-650
▁This	-651
ational	-652
bar	-653
▁new	-654
ven	-655
▁one	-656
lass	-657
cess	-658
▁bet	-659
▁her	-660
hmen	-661
▁mehr	-662
ose	-663
▁On	-664
▁Daten	-665
igkeit	-666
▁Dies	-667
ähr	-668
ßen	-669
gle	-670
▁best	-671
iver	-672
▁ste	-673
arbeit	-674
ese	-675
▁its	-676
ays	-677
▁nur	-678
),	-679
cht	-680
gel	-681
▁ind	-682
▁their	-683
uchen	-684
cre	-685
ervice	-686
rans	-687
ax	-688
any	-689
ating	-690
ke	-691
als	-692
ren	-693
▁work	-694
▁Me	-695
ible	-696
ität	-697
az	-698
▁“	-699
gan	-700
ights	-701
ces	-702
ock	-703
▁Um	-704
▁but	-705
imm	-706
▁jed	-707
▁off	-708
ory	-709
lect	-710
▁Vor	-711
▁hote	-712
▁prov	-713
▁fe	-714
▁about	-715
enden	-716
ower	-717
eren	-718
▁ich	-719
wend	-720
ments	-721
▁other	-722
lan	-723
old	-724
▁inter	-725
rä	-726
▁use	-727
reat	-728
ress	-729
▁any	-730
▁ihr	-731
▁alle	-732
▁data	-733
ys	-734
gram	-735
ities	-736
mit	-737
▁vom	-738
fahr	-739
ient	-740
▁ih	-741
▁Ber	-742
▁pre	-743
elle	-744
ike	-745
▁Jahr	-746
▁Man	-747
alt	-748
▁You	-749
▁sow	-750
wo	-751
eite	-752
aut	-753
over	-754
äl	-755
ics	-756
zeit	-757
entr	-758
iele	-759
▁Es	-760
int	-761
▁20	-762
ely	-763
els	-764
▁reg	-765
kte	-766
ows	-767
ware	-768
▁Mar	-769
nis	-770
anz	-771
ular	-772
▁high	-773
ium	-774
▁ag	-775
ath	-776
▁weit	-777
▁Im	-778
utsch	-779
halten	-780
part	-781
▁Des	-782
▁0	-783
ied	-784
wert	-785
▁All	-786
ans	-787
orld	-788
▁Nach	-789
AN	-790
row	-791
oss	-792
▁wurde	-793
off	-794
▁Ro	-795
▁find	-796
▁Ph	-797
abe	-798
ix	-799
▁inst	-800
teil	-801
ility	-802
ets	-803
ett	-804
ommen	-805
ates	-806
▁product	-807
▁fr	-808
let	-809
▁Her	-810
▁aut	-811
▁year	-812
▁Comp	-813
▁person	-814
▁Information	-815
EN	-816
ivers	-817
ull	-818
led	-819
▁com	-820
▁mach	-821
ser	-822
▁bie	-823
ject	-824
rei	-825
▁Tra	-826
▁information	-827
att	-828
▁Zeit	-829
uen	-830
▁Wh	-831
ages	-832
ster	-833
gl	-834
nehmen	-835
▁Ü	-836
igt	-837
ibt	-838
▁Ne	-839
▁Bl	-840
▁hin	-841
▁diese	-842
▁there	-843
000	-844
▁ges	-845
ring	-846
ron	-847
▁dire	-848
▁supp	-849
arm	-850
ensch	-851
▁12	-852
ierung	-853
ific	-854
nt	-855
▁system	-856
▁Gesch	-857
▁X	-858
▁loc	-859
iger	-860
▁km	-861
▁Art	-862
amil	-863
führ	-864
stell	-865
ene	-866
.1	-867
mb	-868
▁Air	-869
▁Intern	-870
ös	-871
▁only	-872
pen	-873
▁ob	-874
ced	-875
aur	-876
xt	-877
▁sowie	-878
▁col	-879
▁hel	-880
erg	-881
ebsite	-882
50	-883
ues	-884
view	-885
▁sol	-886
▁(1	-887
eld	-888
ox	-889
▁Bed	-890
▁Wenn	-891
vail	-892
oth	-893
ove	-894
▁App	-895
lose	-896
ler	-897
▁Aut	-898
fol	-899
▁opt	-900
▁they	-901
je	-902
uche	-903
▁process	-904
▁incl	-905
▁well	-906
▁finden	-907
ateg	-908
▁Ihnen	-909
▁New	-910
▁US	-911
▁room	-912
ipp	-913
load	-914
arch	-915
▁If	-916
▁ph	-917
▁his	-918
▁over	-919
▁wenn	-920
atz	-921
akt	-922
▁techn	-923
▁And	-924
▁dar	-925
▁Bes	-926
▁Ger	-927
IN	-928
▁Br	-929
ious	-930
▁dr	-931
▁Lie	-932
fter	-933
aterial	-934
▁noch	-935
vent	-936
etzt	-937
icher	-938
▁aber	-939
▁into	-940
ict	-941
▁zw	-942
▁dieser	-943
eln	-944
▁lie	-945
uß	-946
ustom	-947
▁Fran	-948
üss	-949
velop	-950
sh	-951
▁Spe	-952
fach	-953
▁get	-954
▁Sing	-955
▁Fre	-956
▁them	-957
▁Reg	-958
änd	-959
▁Ste	-960
ße	-961
▁Hand	-962
▁pl	-963
▁ber	-964
▁soll	-965
▁requ	-966
.0	-967
.2	-968
ina	-969
rol	-970
öff	-971
zu	-972
adt	-973
net	-974
cted	-975
hlen	-976
ken	-977
red	-978
urg	-979
▁18	-980
▁if	-981
▁ra	-982
▁Mus	-983
▁who	-984
▁sc	-985
▁Fra	-986
▁min	-987
▁Germ	-988
▁Ha	-989
▁car	-990
▁Min	-991
▁been	-992
alls	-993
mal	-994
ather	-995
ality	-996
itz	-997
round	-998
▁As	-999
▁[	-1000
ouse	-1001
enz	-1002
fr	-1003
▁du	-1004
asch	-1005
▁free	-1006
very	-1007
agen	-1008
▁Ges	-1009
▁cons	-1010
arge	-1011
erstell	-1012
ator	-1013
irst	-1014
ruck	-1015
▁Part	-1016
ider	-1017
▁ins	-1018
estaur	-1019
ins	-1020
ative	-1021
wn	-1022
▁Am	-1023
▁pe	-1024
▁sehr	-1025
ooking	-1026
vailable	-1027
ommun	-1028
üge	-1029
▁Dr	-1030
rough	-1031
ott	-1032
▁no	-1033
ucht	-1034
lung	-1035
▁need	-1036
itt	-1037
▁bu	-1038
uring	-1039
▁when	-1040
iet	-1041
lex	-1042
urn	-1043
▁gr	-1044
▁Deutsch	-1045
▁bed	-1046
ution	-1047
istr	-1048
ellen	-1049
▁design	-1050
elb	-1051
▁kn	-1052
min	-1053
ownload	-1054
▁Informationen	-1055
▁most	-1056
ühr	-1057
▁sub	-1058
20	-1059
aff	-1060
▁Mon	-1061
▁may	-1062
lim	-1063
▁pla	-1064
▁Su	-1065
ally	-1066
hör	-1067
▁To	-1068
ustr	-1069
ON	-1070
assen	-1071
▁Son	-1072
▁fun	-1073
hne	-1074
ife	-1075
omat	-1076
arte	-1077
▁Res	-1078
ee	-1079
▁15	-1080
ital	-1081
ktiv	-1082
▁Inst	-1083
unter	-1084
▁da	-1085
▁exp	-1086
-1	-1087
▁mo	-1088
uter	-1089
kun	-1090
uer	-1091
ierte	-1092
cy	-1093
▁trans	-1094
▁hotel	-1095
St	-1096
ize	-1097
äch	-1098
▁Kon	-1099
air	-1100
reib	-1101
▁Fin	-1102
kl	-1103
eth	-1104
▁very	-1105
iness	-1106
▁eines	-1107
li	-1108
ichen	-1109
ound	-1110
richt	-1111
orn	-1112
▁hand	-1113
aw	-1114
ants	-1115
halt	-1116
ember	-1117
▁vers	-1118
▁Wind	-1119
ervices	-1120
blem	-1121
▁bas	-1122
isten	-1123
füg	-1124
lage	-1125
▁online	-1126
▁act	-1127
arten	-1128
AT	-1129
uten	-1130
▁eff	-1131
ftware	-1132
ammen	-1133
ience	-1134
▁ihre	-1135
▁such	-1136
tsch	-1137
fort	-1138
ohn	-1139
ures	-1140
▁Med	-1141
öch	-1142
▁sec	-1143
▁like	-1144
ash	-1145
▁my	-1146
▁Über	-1147
▁Con	-1148
ES	-1149
▁Ö	-1150
▁Fr	-1151
▁Qu	-1152
▁gibt	-1153
▁used	-1154
▁develop	-1155
▁through	-1156
its	-1157
▁At	-1158
fore	-1159
ited	-1160
▁Wer	-1161
▁intern	-1162
▁Ind	-1163
▁bel	-1164
isp	-1165
yp	-1166
gesch	-1167
AR	-1168
▁€	-1169
▁sm	-1170
leit	-1171
ai	-1172
▁100	-1173
▁Cont	-1174
usammen	-1175
usiness	-1176
ünst	-1177
▁ass	-1178
tem	-1179
eter	-1180
room	-1181
▁Gen	-1182
▁than	-1183
▁vis	-1184
▁Person	-1185
ause	-1186
▁2017	-1187
co	-1188
schaft	-1189
fin	-1190
ält	-1191
ctions	-1192
▁every	-1193
itä	-1194
▁Pol	-1195
ails	-1196
▁eing	-1197
▁rec	-1198
ek	-1199
sel	-1200
inter	-1201
zimmer	-1202
▁Zimmer	-1203
arket	-1204
eiten	-1205
ful	-1206
alk	-1207
vis	-1208
▁einfach	-1209
na	-1210
▁EU	-1211
▁Nä	-1212
lä	-1213
vor	-1214
▁world	-1215
ards	-1216
▁Preis	-1217
▁available	-1218
ps	-1219
▁30	-1220
▁Sk	-1221
▁viel	-1222
▁Online	-1223
orts	-1224
▁versch	-1225
▁dif	-1226
sen	-1227
▁che	-1228
▁Gro	-1229
ature	-1230
30	-1231
way	-1232
▁add	-1233
▁dev	-1234
▁pol	-1235
CH	-1236
ollow	-1237
ars	-1238
▁access	-1239
res	-1240
burg	-1241
kauf	-1242
ux	-1243
▁gem	-1244
▁Vers	-1245
cher	-1246
oy	-1247
▁11	-1248
▁Free	-1249
▁bietet	-1250
▁Fe	-1251
▁first	-1252
▁form	-1253
▁16	-1254
tens	-1255
ement	-1256
▁offer	-1257
▁custom	-1258
war	-1259
iden	-1260
▁Bet	-1261
ister	-1262
▁exper	-1263
▁Unternehmen	-1264
▁near	-1265
▁air	-1266
▁rem	-1267
▁.	-1268
essen	-1269
lease	-1270
▁book	-1271
agement	-1272
▁how	-1273
geben	-1274
▁entfer	-1275
▁unsere	-1276
aly	-1277
▁Tag	-1278
ident	-1279
ransp	-1280
tre	-1281
wei	-1282
▁were	-1283
inn	-1284
ism	-1285
▁dam	-1286
▁Arbeit	-1287
▁Europe	-1288
▁gu	-1289
▁Techn	-1290
ED	-1291
bers	-1292
laub	-1293
▁good	-1294
amm	-1295
ift	-1296
olle	-1297
utzer	-1298
▁Nähe	-1299
ional	-1300
▁Cl	-1301
▁Is	-1302
▁poss	-1303
▁includ	-1304
ats	-1305
iqu	-1306
▁Geb	-1307
▁fil	-1308
▁Kont	-1309
▁Ihren	-1310
bo	-1311
▁Car	-1312
▁del	-1313
▁cent	-1314
▁Flug	-1315
▁Verb	-1316
ütz	-1317
▁these	-1318
con	-1319
iven	-1320
▁hier	-1321
ours	-1322
nah	-1323
▁sk	-1324
▁kon	-1325
▁fre	-1326
▁Kunden	-1327
▁prof	-1328
▁Stand	-1329
ople	-1330
▁wel	-1331
ton	-1332
ites	-1333
OR	-1334
ness	-1335
▁Par	-1336
▁kosten	-1337
▁How	-1338
möglich	-1339
▁Land	-1340
satz	-1341
▁view	-1342
▁Diese	-1343
aum	-1344
▁Che	-1345
igung	-1346
▁(2	-1347
stand	-1348
▁cur	-1349
▁unserer	-1350
ines	-1351
asser	-1352
▁many	-1353
rent	-1354
leb	-1355
atch	-1356
itte	-1357
ives	-1358
▁mus	-1359
▁area	-1360
yn	-1361
▁co	-1362
ence	-1363
▁Mod	-1364
▁emp	-1365
inder	-1366
kunft	-1367
▁long	-1368
▁provid	-1369
otos	-1370
▁Wie	-1371
pl	-1372
dem	-1373
cken	-1374
▁Fahr	-1375
▁ange	-1376
▁verb	-1377
ischer	-1378
▁conne	-1379
irm	-1380
▁Leb	-1381
▁gew	-1382
▁Date	-1383
▁disc	-1384
▁Zu	-1385
▁Ben	-1386
▁keine	-1387
▁under	-1388
arn	-1389
▁det	-1390
▁num	-1391
▁two	-1392
ierten	-1393
gest	-1394
tellen	-1395
▁ohne	-1396
▁Bo	-1397
lack	-1398
▁Ich	-1399
ieden	-1400
▁years	-1401
▁With	-1402
▁anderen	-1403
▁Co	-1404
▁go	-1405
ology	-1406
▁offers	-1407
▁help	-1408
▁some	-1409
▁back	-1410
▁gesch	-1411
ave	-1412
▁Sw	-1413
amen	-1414
inen	-1415
ling	-1416
par	-1417
iend	-1418
▁set	-1419
ude	-1420
▁1.	-1421
▁Kosten	-1422
rad	-1423
▁br	-1424
rieb	-1425
▁sim	-1426
▁even	-1427
isen	-1428
▁str	-1429
In	-1430
ivid	-1431
▁Acc	-1432
irt	-1433
▁14	-1434
▁now	-1435
ument	-1436
▁Für	-1437
▁fol	-1438
▁just	-1439
day	-1440
gend	-1441
▁ele	-1442
ams	-1443
less	-1444
▁cre	-1445
▁day	-1446
▁diesem	-1447
▁follow	-1448
▁service	-1449
eral	-1450
raph	-1451
einen	-1452
▁Welt	-1453
▁differ	-1454
latz	-1455
▁x	-1456
ahn	-1457
ters	-1458
▁Design	-1459
▁make	-1460
▁people	-1461
opp	-1462
▁sur	-1463
sche	-1464
wick	-1465
▁ger	-1466
▁par	-1467
esent	-1468
▁products	-1469
AS	-1470
ract	-1471
üt	-1472
▁ze	-1473
acht	-1474
weise	-1475
▁file	-1476
▁right	-1477
▁Engl	-1478
▁Hol	-1479
▁med	-1480
▁Park	-1481
hed	-1482
ofa	-1483
▁wieder	-1484
▁Gu	-1485
10	-1486
alen	-1487
▁Teil	-1488
▁TV	-1489
▁tr	-1490
ween	-1491
▁ben	-1492
▁eas	-1493
elbst	-1494
▁main	-1495
▁oper	-1496
▁Stadt	-1497
▁after	-1498
▁Ser	-1499
irts	-1500
▁Qual	-1501
▁play	-1502
▁besten	-1503
ior	-1504
zie	-1505
llen	-1506
▁flights	-1507
oint	-1508
pert	-1509
▁Spiel	-1510
▁count	-1511
▁stand	-1512
oug	-1513
▁Restaur	-1514
fte	-1515
▁ac	-1516
▁inv	-1517
▁Stud	-1518
zeich	-1519
tegr	-1520
hand	-1521
etter	-1522
tellt	-1523
▁open	-1524
▁applic	-1525
ideo	-1526
▁entfernt	-1527
ienst	-1528
ining	-1529
press	-1530
utzen	-1531
▁install	-1532
▁between	-1533
IT	-1534
▁immer	-1535
halb	-1536
Ad	-1537
trag	-1538
▁Chr	-1539
▁neue	-1540
▁möglich	-1541
mm	-1542
▁24	-1543
▁Sc	-1544
ames	-1545
▁Fun	-1546
forder	-1547
▁seine	-1548
▁17	-1549
▁mod	-1550
▁Produkt	-1551
▁automat	-1552
▁without	-1553
▁Fer	-1554
kommen	-1555
ährend	-1556
AL	-1557
üh	-1558
▁Bar	-1559
▁bre	-1560
▁made	-1561
▁There	-1562
▁System	-1563
fre	-1564
leich	-1565
▁gegen	-1566
zahl	-1567
▁Alle	-1568
ließ	-1569
▁where	-1570
▁Best	-1571
▁beg	-1572
ufact	-1573
▁place	-1574
▁using	-1575
fra	-1576
▁mm	-1577
amer	-1578
vers	-1579
▁art	-1580
stoff	-1581
▁lang	-1582
bed	-1583
▁organ	-1584
ips	-1585
▁Bel	-1586
▁son	-1587
iving	-1588
▁prote	-1589
▁zwischen	-1590
ks	-1591
▁25	-1592
ination	-1593
▁weiter	-1594
▁Pl	-1595
▁Tr	-1596
ionen	-1597
OS	-1598
urs	-1599
▁wo	-1600
▁special	-1601
▁Kü	-1602
▁Sm	-1603
lete	-1604
iß	-1605
EL	-1606
iff	-1607
osition	-1608
▁Windows	-1609
▁13	-1610
▁La	-1611
rupp	-1612
onder	-1613
▁schn	-1614
▁should	-1615
partment	-1616
IS	-1617
esen	-1618
ript	-1619
äd	-1620
ple	-1621
▁Mo	-1622
cept	-1623
ogen	-1624
▁equ	-1625
ichtig	-1626
work	-1627
▁own	-1628
▁var	-1629
▁dann	-1630
▁Internet	-1631
--	-1632
ublic	-1633
▁einz	-1634
man	-1635
▁Our	-1636
▁val	-1637
▁andere	-1638
▁cl	-1639
▁order	-1640
utes	-1641
zeug	-1642
▁geb	-1643
▁again	-1644
weit	-1645
▁dec	-1646
gramm	-1647
▁then	-1648
ric	-1649
▁here	-1650
▁appro	-1651
60	-1652
▁50	-1653
▁priv	-1654
▁Inter	-1655
▁different	-1656
▁>	-1657
anzen	-1658
▁Mensch	-1659
ey	-1660
▁+	-1661
anc	-1662
bere	-1663
ability	-1664
bes	-1665
▁Str	-1666
▁met	-1667
fahren	-1668
mittel	-1669
▁verschieden	-1670
▁end	-1671
▁ausge	-1672
▁eigen	-1673
▁within	-1674
▁wurden	-1675
ized	-1676
▁require	-1677
▁website	-1678
br	-1679
kten	-1680
▁Fil	-1681
▁War	-1682
▁stud	-1683
▁know	-1684
ino	-1685
▁Eine	-1686
ationen	-1687
▁Ur	-1688
▁bl	-1689
▁see	-1690
ically	-1691
▁Ju	-1692
▁had	-1693
▁kle	-1694
entrum	-1695
rag	-1696
ichte	-1697
▁quality	-1698
▁personal	-1699
ommod	-1700
üssen	-1701
▁Home	-1702
▁what	-1703
▁bereit	-1704
US	-1705
oren	-1706
▁Bere	-1707
▁pass	-1708
An	-1709
oom	-1710
ield	-1711
inal	-1712
▁etw	-1713
▁direct	-1714
▁Singles	-1715
eh	-1716
öß	-1717
stru	-1718
akes	-1719
▁Ihrem	-1720
ager	-1721
ET	-1722
pect	-1723
play	-1724
lagen	-1725
legen	-1726
▁Univers	-1727
nov	-1728
▁Durch	-1729
▁way	-1730
▁condition	-1731
▁possible	-1732
itäten	-1733
▁Famil	-1734
irtsofa	-1735
▁device	-1736
▁Flirtsofa	-1737
ec	-1738
ads	-1739
ende	-1740
ners	-1741
ußer	-1742
▁Entw	-1743
▁beste	-1744
▁dieses	-1745
.5	-1746
▁ev	-1747
ince	-1748
▁cle	-1749
▁2016	-1750
ission	-1751
▁Suche	-1752
▁Berlin	-1753
▁hotels	-1754
▁business	-1755
-2	-1756
ady	-1757
ube	-1758
äs	-1759
afen	-1760
ists	-1761
▁2018	-1762
▁zwei	-1763
▁partic	-1764
pf	-1765
äh	-1766
mbH	-1767
rib	-1768
luss	-1769
nung	-1770
▁Far	-1771
▁Und	-1772
▁full	-1773
▁great	-1774
ald	-1775
▁Ma	-1776
aften	-1777
under	-1778
▁Form	-1779
hält	-1780
▁Off	-1781
▁ide	-1782
▁GmbH	-1783
▁want	-1784
book	-1785
▁Kun	-1786
▁ser	-1787
aster	-1788
cript	-1789
▁Flüge	-1790
▁Deutschland	-1791
tes	-1792
▁take	-1793
▁Besch	-1794
▁would	-1795
▁international	-1796
upt	-1797
earch	-1798
oogle	-1799
ählen	-1800
▁verw	-1801
▁water	-1802
berg	-1803
other	-1804
▁link	-1805
▁folgen	-1806
elf	-1807
▁ho	-1808
issen	-1809
ories	-1810
ica	-1811
raft	-1812
▁Ele	-1813
▁found	-1814
▁problem	-1815
fts	-1816
wort	-1817
▁Gew	-1818
rauch	-1819
▁Website	-1820
▁services	-1821
pos	-1822
umen	-1823
▁gar	-1824
ständ	-1825
änder	-1826
ookies	-1827
▁individ	-1828
kann	-1829
rich	-1830
▁Bei	-1831
▁beim	-1832
▁sign	-1833
igital	-1834
▁Wetter	-1835
▁Seite	-1836
▁famil	-1837
▁during	-1838
ros	-1839
ma	-1840
▁Du	-1841
ahre	-1842
zial	-1843
▁she	-1844
leist	-1845
▁Dire	-1846
▁company	-1847
atures	-1848
gleich	-1849
ktionen	-1850
▁Liefer	-1851
▁import	-1852
▁erhalten	-1853
enk	-1854
kün	-1855
haus	-1856
▁cap	-1857
▁power	-1858
▁support	-1859
▁addition	-1860
pre	-1861
lock	-1862
▁Det	-1863
views	-1864
gem	-1865
iste	-1866
▁Men	-1867
▁eng	-1868
▁Nutz	-1869
▁city	-1870
▁Europ	-1871
öl	-1872
▁'	-1873
hol	-1874
▁Zug	-1875
aking	-1876
▁days	-1877
▁voll	-1878
▁entsp	-1879
▁optim	-1880
▁Google	-1881
▁Service	-1882
abel	-1883
schn	-1884
▁before	-1885
äß	-1886
▁Jun	-1887
▁Verfüg	-1888
ransport	-1889
▁current	-1890
icherheit	-1891
ird	-1892
▁akt	-1893
▁user	-1894
▁damit	-1895
▁liegt	-1896
ots	-1897
nisse	-1898
▁child	-1899
80	-1900
gang	-1901
▁Germany	-1902
iron	-1903
▁contact	-1904
▁•	-1905
▁comm	-1906
▁Bewert	-1907
ilt	-1908
orm	-1909
ased	-1910
▁San	-1911
▁rel	-1912
▁Port	-1913
▁Priv	-1914
▁Entwick	-1915
▁looking	-1916
hän	-1917
rach	-1918
▁cor	-1919
atter	-1920
▁Supp	-1921
▁search	-1922
aid	-1923
mail	-1924
▁Haus	-1925
▁incre	-1926
▁müssen	-1927
itu	-1928
zess	-1929
▁Schw	-1930
▁Flugh	-1931
▁project	-1932
illa	-1933
▁bef	-1934
▁control	-1935
▁Kom	-1936
▁top	-1937
▁wen	-1938
▁Trip	-1939
▁must	-1940
▁Geschä	-1941
iday	-1942
▁Ihrer	-1943
▁Christ	-1944
▁following	-1945
oto	-1946
ubl	-1947
▁Pal	-1948
▁Weit	-1949
utions	-1950
99	-1951
ep	-1952
werk	-1953
▁Per	-1954
esser	-1955
▁does	-1956
▁Wasser	-1957
▁manual	-1958
▁number	-1959
lag	-1960
ward	-1961
allen	-1962
keiten	-1963
▁Uns	-1964
öffent	-1965
▁small	-1966
▁German	-1967
▁Gl	-1968
▁je	-1969
ody	-1970
come	-1971
ctor	-1972
ting	-1973
▁But	-1974
▁Stra	-1975
lob	-1976
ätz	-1977
▁Prof	-1978
DF	-1979
▁#	-1980
ental	-1981
▁Stre	-1982
▁program	-1983
▁provide	-1984
öt	-1985
ille	-1986
▁Mal	-1987
▁Wohn	-1988
▁hist	-1989
▁rece	-1990
▁Grund	-1991
▁Herstell	-1992
bild	-1993
▁Sal	-1994
▁rep	-1995
▁perform	-1996
org	-1997
▁Bre	-1998
▁Bild	-1999
get	-2000
IC	-2001
by	-2002
äuf	-2003
fect	-2004
▁life	-2005
wendet	-2006
40	-2007
bau	-2008
ason	-2009
otor	-2010
▁Als	-2011
▁Top	-2012
stütz	-2013
▁material	-2014
▁bec	-2015
licher	-2016
zeigen	-2017
▁Frank	-2018
▁light	-2019
ieb	-2020
▁Ob	-2021
▁adv	-2022
▁Ferien	-2023
ves	-2024
imes	-2025
▁Kinder	-2026
▁market	-2027
igkeiten	-2028
glie	-2029
itor	-2030
▁Trans	-2031
▁Download	-2032
ype	-2033
▁El	-2034
▁bo	-2035
▁ret	-2036
grund	-2037
▁same	-2038
▁Angeb	-2039
▁experience	-2040
Pro	-2041
▁Au	-2042
ikel	-2043
vert	-2044
▁Bas	-2045
ision	-2046
▁während	-2047
▁Ä	-2048
cke	-2049
▁besch	-2050
▁Produkte	-2051
zogen	-2052
▁High	-2053
▁cost	-2054
ilities	-2055
▁around	-2056
▁Menschen	-2057
▁resp	-2058
▁rooms	-2059
jekt	-2060
▁möch	-2061
leitung	-2062
▁machen	-2063
eum	-2064
oin	-2065
ved	-2066
roll	-2067
▁Can	-2068
ander	-2069
ichts	-2070
▁2019	-2071
▁spec	-2072
yd	-2073
urt	-2074
zug	-2075
ways	-2076
▁gef	-2077
▁Zoom	-2078
ury	-2079
ähl	-2080
bare	-2081
ritt	-2082
tend	-2083
▁real	-2084
▁flight	-2085
bie	-2086
▁Gä	-2087
ches	-2088
eder	-2089
▁Gra	-2090
▁Opt	-2091
▁Find	-2092
▁»	-2093
iges	-2094
▁Ant	-2095
▁selbst	-2096
▁located	-2097
▁propert	-2098
weg	-2099
wir	-2100
▁Search	-2101
▁Ed	-2102
aden	-2103
ante	-2104
ries	-2105
▁Add	-2106
laden	-2107
▁zurück	-2108
isk	-2109
▁Up	-2110
▁Hier	-2111
▁Jahre	-2112
▁elect	-2113
▁group	-2114
AM	-2115
ged	-2116
▁cm	-2117
▁iP	-2118
abei	-2119
▁Vol	-2120
▁cho	-2121
▁him	-2122
▁leg	-2123
▁hoch	-2124
▁komp	-2125
ume	-2126
▁activ	-2127
bereich	-2128
▁bieten	-2129
▁complete	-2130
ily	-2131
uper	-2132
obile	-2133
▁viele	-2134
ollen	-2135
▁Cent	-2136
▁City	-2137
schließ	-2138
str	-2139
▁Ent	-2140
▁gut	-2141
ately	-2142
▁Austr	-2143
▁Material	-2144
EC	-2145
hof	-2146
alth	-2147
omen	-2148
ough	-2149
▁Char	-2150
azu	-2151
asse	-2152
ergy	-2153
▁level	-2154
▁neuen	-2155
▁change	-2156
▁verwendet	-2157
sk	-2158
oor	-2159
ummer	-2160
▁each	-2161
▁jetzt	-2162
▁Jahren	-2163
app	-2164
outh	-2165
▁Kle	-2166
▁Met	-2167
▁both	-2168
▁conf	-2169
▁Bu	-2170
ross	-2171
ults	-2172
▁Cas	-2173
ually	-2174
▁build	-2175
▁Software	-2176
unkt	-2177
▁cal	-2178
▁ganz	-2179
▁Kunst	-2180
▁European	-2181
▁%	-2182
▁2.	-2183
▁Col	-2184
aufen	-2185
▁What	-2186
▁verfü	-2187
▁integr	-2188
▁zusammen	-2189
yl	-2190
onth	-2191
▁hol	-2192
▁Mehr	-2193
▁mein	-2194
▁World	-2195
reichen	-2196
▁accommod	-2197
▁21	-2198
ains	-2199
▁cour	-2200
rowser	-2201
▁gleich	-2202
▁including	-2203
ca	-2204
▁No	-2205
rank	-2206
ultur	-2207
▁show	-2208
▁shall	-2209
stellung	-2210
▁English	-2211
▁download	-2212
▁199	-2213
enten	-2214
ified	-2215
ilder	-2216
▁Mark	-2217
▁accord	-2218
RO	-2219
ands	-2220
ügen	-2221
▁Sol	-2222
indet	-2223
▁Buch	-2224
▁Play	-2225
▁Airport	-2226
iere	-2227
etwork	-2228
▁See	-2229
▁stay	-2230
▁large	-2231
▁effect	-2232
12	-2233
nte	-2234
ush	-2235
buch	-2236
▁Web	-2237
▁tem	-2238
▁Rück	-2239
▁Möglich	-2240
▁1,	-2241
▁40	-2242
alle	-2243
asst	-2244
▁muss	-2245
▁allen	-2246
Sh	-2247
▁sl	-2248
auer	-2249
▁fac	-2250
innen	-2251
▁redu	-2252
▁China	-2253
▁Was	-2254
▁Gerät	-2255
▁günst	-2256
▁ihrer	-2257
▁start	-2258
▁Unterkunft	-2259
err	-2260
spr	-2261
ünd	-2262
ette	-2263
obil	-2264
▁Lös	-2265
urther	-2266
▁second	-2267
IL	-2268
olf	-2269
▁AG	-2270
chts	-2271
wohn	-2272
▁house	-2273
▁visit	-2274
▁Bü	-2275
▁More	-2276
wendung	-2277
▁important	-2278
ober	-2279
wach	-2280
creen	-2281
▁60	-2282
folg	-2283
ides	-2284
▁Gem	-2285
▁look	-2286
▁cheap	-2287
▁Kontakt	-2288
orth	-2289
ization	-2290
yle	-2291
▁et	-2292
ests	-2293
ique	-2294
ering	-2295
▁Tour	-2296
rechen	-2297
oud	-2298
äus	-2299
ival	-2300
eller	-2301
▁führ	-2302
isches	-2303
▁could	-2304
▁manufact	-2305
fo	-2306
aun	-2307
uft	-2308
chte	-2309
▁Sep	-2310
nahme	-2311
▁Komp	-2312
▁bath	-2313
▁meas	-2314
▁Reise	-2315
▁seiner	-2316
Sch	-2317
stück	-2318
▁price	-2319
▁sehen	-2320
▁direkt	-2321
rop	-2322
zuf	-2323
ever	-2324
▁char	-2325
▁größ	-2326
▁diesen	-2327
issensch	-2328
▁tradition	-2329
▁development	-2330
ym	-2331
zw	-2332
conom	-2333
▁Aktiv	-2334
▁schon	-2335
▁sw	-2336
▁Aug	-2337
ished	-2338
▁plan	-2339
▁week	-2340
▁still	-2341
▁commun	-2342
cription	-2343
hor	-2344
ruct	-2345
▁Com	-2346
▁pur	-2347
anden	-2348
▁When	-2349
▁cert	-2350
ingungen	-2351
ha	-2352
▁Nov	-2353
lection	-2354
▁Flughafen	-2355
▁Hil	-2356
▁home	-2357
ulation	-2358
▁Mitarbeit	-2359
▁$	-2360
unn	-2361
axim	-2362
ktur	-2363
▁map	-2364
▁Webs	-2365
▁stat	-2366
aschine	-2367
▁friend	-2368
loy	-2369
▁contin	-2370
▁research	-2371
▁PC	-2372
▁att	-2373
▁gel	-2374
visor	-2375
▁groß	-2376
▁mich	-2377
tember	-2378
Re	-2379
uh	-2380
joy	-2381
orf	-2382
▁Dienst	-2383
▁ermöglich	-2384
ri	-2385
LAN	-2386
ases	-2387
kehr	-2388
▁Uhr	-2389
▁far	-2390
licht	-2391
▁kostenlos	-2392
▁Sicherheit	-2393
flä	-2394
oot	-2395
reen	-2396
▁Sil	-2397
▁pop	-2398
viron	-2399
▁Seiten	-2400
▁address	-2401
cle	-2402
▁Bra	-2403
▁mir	-2404
alten	-2405
▁Tele	-2406
▁Woch	-2407
▁down	-2408
▁pers	-2409
indung	-2410
schutz	-2411
▁quest	-2412
▁entwick	-2413
ried	-2414
blick	-2415
▁Lebens	-2416
ID	-2417
laf	-2418
iner	-2419
iter	-2420
▁site	-2421
▁Unsere	-2422
ule	-2423
pend	-2424
▁Camp	-2425
▁From	-2426
▁stor	-2427
ograph	-2428
▁range	-2429
25	-2430
▁ens	-2431
ample	-2432
ändern	-2433
▁Zusammen	-2434
▁features	-2435
▁Ze	-2436
▁Rad	-2437
▁Computer	-2438
TM	-2439
yr	-2440
hib	-2441
leg	-2442
▁Live	-2443
:00	-2444
unde	-2445
▁Artikel	-2446
▁because	-2447
bl	-2448
ibr	-2449
por	-2450
▁bra	-2451
uests	-2452
▁name	-2453
▁aller	-2454
▁month	-2455
▁while	-2456
▁Restaurants	-2457
70	-2458
uz	-2459
neh	-2460
ared	-2461
ccess	-2462
▁Hoch	-2463
▁Ober	-2464
▁Room	-2465
▁View	-2466
▁able	-2467
▁last	-2468
▁bring	-2469
▁Driver	-2470
▁travel	-2471
AP	-2472
latt	-2473
▁Kar	-2474
▁som	-2475
▁aktu	-2476
Advisor	-2477
arbeitung	-2478
▁TripAdvisor	-2479
IP	-2480
ana	-2481
äre	-2482
aint	-2483
ales	-2484
ones	-2485
▁Mag	-2486
▁doc	-2487
▁Show	-2488
▁comb	-2489
▁conc	-2490
ologie	-2491
ils	-2492
▁23	-2493
▁Da	-2494
face	-2495
warz	-2496
▁Mic	-2497
ustry	-2498
▁dein	-2499
▁page	-2500
▁unserem	-2501
▁Qualität	-2502
esh	-2503
▁My	-2504
ifiz	-2505
▁via	-2506
▁2015	-2507
▁habe	-2508
▁letz	-2509
▁Video	-2510
.3	-2511
oe	-2512
uff	-2513
▁jeder	-2514
▁Bereich	-2515
▁deliver	-2516
▁profess	-2517
▁mil	-2518
▁Arch	-2519
▁Link	-2520
▁seit	-2521
▁star	-2522
künfte	-2523
▁gener	-2524
▁Bedien	-2525
▁prices	-2526
▁children	-2527
afe	-2528
met	-2529
alys	-2530
ised	-2531
lauf	-2532
▁Bau	-2533
▁inner	-2534
▁three	-2535
uck	-2536
▁Ag	-2537
▁Wi	-2538
hens	-2539
ziel	-2540
ungsan	-2541
schluss	-2542
apt	-2543
gän	-2544
▁26	-2545
fang	-2546
ison	-2547
▁Your	-2548
▁beaut	-2549
▁family	-2550
▁unseren	-2551
/2	-2552
▁Ac	-2553
eten	-2554
icle	-2555
oten	-2556
▁Den	-2557
▁mon	-2558
▁News	-2559
▁dazu	-2560
▁dist	-2561
▁Group	-2562
▁public	-2563
OM	-2564
produ	-2565
▁Phil	-2566
ategor	-2567
▁dabei	-2568
▁sicher	-2569
schaften	-2570
AC	-2571
clus	-2572
▁One	-2573
falls	-2574
schen	-2575
▁Roll	-2576
reibung	-2577
▁computer	-2578
▁Geschäfts	-2579
uk	-2580
hip	-2581
uge	-2582
▁Us	-2583
▁Mil	-2584
anies	-2585
platz	-2586
rieben	-2587
▁Black	-2588
▁Natur	-2589
▁Forsch	-2590
▁Please	-2591
▁ersten	-2592
11	-2593
▁Ass	-2594
▁Gar	-2595
urity	-2596
▁Back	-2597
▁Post	-2598
▁After	-2599
med	-2600
.201	-2601
▁Del	-2602
▁Hin	-2603
ondon	-2604
▁They	-2605
▁fact	-2606
▁lassen	-2607
▁private	-2608
▁Benutzer	-2609
eins	-2610
▁Mac	-2611
▁Rep	-2612
▁mem	-2613
▁pay	-2614
gaben	-2615
usätz	-2616
▁Mont	-2617
▁being	-2618
ibility	-2619
▁content	-2620
▁May	-2621
▁Rel	-2622
ouble	-2623
▁Mess	-2624
entral	-2625
▁minutes	-2626
▁conditions	-2627
Mail	-2628
▁Zur	-2629
▁bro	-2630
ipment	-2631
▁Dieses	-2632
▁perfect	-2633
▁Kostenlose	-2634
▁International	-2635
ctive	-2636
▁case	-2637
▁sens	-2638
itchen	-2639
▁software	-2640
abl	-2641
gew	-2642
mend	-2643
▁Dom	-2644
orten	-2645
▁term	-2646
▁innov	-2647
▁Mitglie	-2648
▁September	-2649
35	-2650
OL	-2651
rän	-2652
▁Do	-2653
atür	-2654
geln	-2655
▁Log	-2656
amera	-2657
▁care	-2658
▁ihren	-2659
antwort	-2660
▁Verfügung	-2661
ids	-2662
ops	-2663
▁est	-2664
▁typ	-2665
▁Work	-2666
▁drei	-2667
▁next	-2668
▁click	-2669
▁field	-2670
fern	-2671
ätze	-2672
▁Tem	-2673
▁Lage	-2674
▁much	-2675
▁teil	-2676
licken	-2677
2,	-2678
ST	-2679
oh	-2680
▁*	-2681
ane	-2682
▁Mill	-2683
▁Ster	-2684
▁Sport	-2685
▁weitere	-2686
AB	-2687
UR	-2688
icy	-2689
upp	-2690
raum	-2691
▁Get	-2692
▁Ort	-2693
▁Ital	-2694
▁Zahl	-2695
▁list	-2696
▁sondern	-2697
▁systems	-2698
▁Partners	-2699
▁Entwicklung	-2700
▁ä	-2701
ify	-2702
▁Kn	-2703
▁Bus	-2704
▁Amer	-2705
▁Tage	-2706
▁away	-2707
▁walk	-2708
isation	-2709
▁always	-2710
▁display	-2711
▁production	-2712
AD	-2713
zus	-2714
▁Apr	-2715
▁Bad	-2716
ahmen	-2717
▁Star	-2718
▁Karte	-2719
▁based	-2720
▁London	-2721
gestellt	-2722
▁anzeigen	-2723
▁herunter	-2724
▁technology	-2725
ker	-2726
oft	-2727
urz	-2728
▁Sn	-2729
itch	-2730
▁PDF	-2731
▁Pat	-2732
▁log	-2733
örper	-2734
▁2014	-2735
▁meet	-2736
ential	-2737
iginal	-2738
▁Fotos	-2739
bezogen	-2740
tschaft	-2741
cel	-2742
eng	-2743
raw	-2744
afts	-2745
ffen	-2746
wahl	-2747
zept	-2748
▁Emp	-2749
▁kein	-2750
▁Gäste	-2751
▁Schwe	-2752
▁befindet	-2753
UN	-2754
ex	-2755
isc	-2756
▁Sim	-2757
▁Gerä	-2758
▁read	-2759
gether	-2760
▁jedoch	-2761
lichkeit	-2762
vironment	-2763
ona	-2764
ray	-2765
▁LED	-2766
▁hum	-2767
itive	-2768
▁Leist	-2769
▁class	-2770
▁gehör	-2771
▁United	-2772
▁function	-2773
Fi	-2774
aj	-2775
chs	-2776
rat	-2777
▁Pf	-2778
heim	-2779
immt	-2780
▁ers	-2781
▁ref	-2782
▁Book	-2783
iation	-2784
▁beach	-2785
▁table	-2786
▁August	-2787
▁account	-2788
▁protection	-2789
The	-2790
opf	-2791
▁3.	-2792
▁Di	-2793
igent	-2794
▁Netz	-2795
▁Energ	-2796
▁check	-2797
schnitt	-2798
▁großen	-2799
klär	-2800
▁Mer	-2801
▁Love	-2802
▁welt	-2803
▁modern	-2804
▁verfüg	-2805
▁property	-2806
hö	-2807
tain	-2808
▁Face	-2809
.,	-2810
ief	-2811
▁Dar	-2812
▁Red	-2813
druck	-2814
▁easy	-2815
▁fest	-2816
▁post	-2817
▁said	-2818
▁serv	-2819
lossen	-2820
▁steht	-2821
▁accommodation	-2822
90	-2823
ises	-2824
▁Sta	-2825
▁ble	-2826
▁few	-2827
schuss	-2828
▁Elect	-2829
▁users	-2830
▁against	-2831
):	-2832
ifen	-2833
napp	-2834
▁denen	-2835
▁quick	-2836
▁bekann	-2837
▁Install	-2838
▁comfort	-2839
▁country	-2840
▁success	-2841
▁Services	-2842
otel	-2843
▁Out	-2844
▁Tre	-2845
▁Von	-2846
▁buy	-2847
ester	-2848
▁Bade	-2849
▁mill	-2850
ickets	-2851
▁etwas	-2852
▁night	-2853
ference	-2854
▁seinen	-2855
▁welche	-2856
▁möchten	-2857
▁customer	-2858
hab	-2859
ürd	-2860
▁Ham	-2861
▁Tit	-2862
▁law	-2863
▁ren	-2864
ively	-2865
▁außer	-2866
▁hours	-2867
▁langu	-2868
▁Schlaf	-2869
▁engine	-2870
▁Problem	-2871
üd	-2872
ommt	-2873
▁EUR	-2874
▁Lin	-2875
▁USA	-2876
▁USB	-2877
ethod	-2878
▁denn	-2879
▁stre	-2880
▁wind	-2881
▁Ergeb	-2882
olution	-2883
▁Server	-2884
▁Product	-2885
▁respons	-2886
▁wichtig	-2887
ification	-2888
15	-2889
EM	-2890
▁ans	-2891
▁park	-2892
isiert	-2893
uments	-2894
▁Beisp	-2895
acy	-2896
umin	-2897
örse	-2898
▁ihn	-2899
lobal	-2900
ruppe	-2901
▁bereits	-2902
▁individual	-2903
bre	-2904
kle	-2905
klus	-2906
▁Eng	-2907
▁She	-2908
piele	-2909
teile	-2910
▁Gott	-2911
▁lead	-2912
▁test	-2913
▁Verein	-2914
▁Nutzung	-2915
▁Standard	-2916
▁provided	-2917
.00	-2918
kon	-2919
anst	-2920
▁Cal	-2921
▁Jul	-2922
führt	-2923
▁clean	-2924
▁enjoy	-2925
▁energy	-2926
▁Details	-2927
issenschaft	-2928
▁Unterkünfte	-2929
9,	-2930
lle	-2931
iten	-2932
▁Akt	-2933
▁Cor	-2934
▁etc	-2935
▁Organ	-2936
▁Dating	-2937
▁present	-2938
ellschaft	-2939
▁particular	-2940
▁application	-2941
prü	-2942
▁IP	-2943
anks	-2944
cent	-2945
▁Rom	-2946
▁low	-2947
▁whe	-2948
astic	-2949
ready	-2950
▁2013	-2951
▁hard	-2952
reiber	-2953
▁those	-2954
mar	-2955
ords	-2956
▁Nor	-2957
▁Schn	-2958
▁mult	-2959
▁rest	-2960
▁times	-2961
▁sollte	-2962
▁stehen	-2963
24	-2964
OT	-2965
ika	-2966
put	-2967
▁Sa	-2968
▁Dat	-2969
▁Ins	-2970
▁Kön	-2971
▁tre	-2972
phone	-2973
▁King	-2974
▁näch	-2975
▁verl	-2976
▁Apple	-2977
▁geben	-2978
▁nutzen	-2979
▁processing	-2980
▁28	-2981
▁Imp	-2982
▁ant	-2983
orgen	-2984
statt	-2985
▁Auto	-2986
▁Fing	-2987
▁Ziel	-2988
lassen	-2989
▁Datei	-2990
▁below	-2991
▁große	-2992
▁centre	-2993
▁Betrieb	-2994
▁Programm	-2995
▁companies	-2996
▁Hersteller	-2997
▁verschiedenen	-2998
ari	-2999
ump	-3000
iety	-3001
▁bar	-3002
▁did	-3003
▁Span	-3004
▁Haupt	-3005
▁ident	-3006
▁music	-3007
▁since	-3008
leistungen	-3009
▁management	-3010
ole	-3011
igur	-3012
▁Mün	-3013
▁Not	-3014
▁exc	-3015
▁int	-3016
etten	-3017
ising	-3018
▁Pass	-3019
▁game	-3020
▁tool	-3021
gebung	-3022
▁course	-3023
aschinen	-3024
▁details	-3025
▁innerhalb	-3026
",	-3027
gas	-3028
ohl	-3029
▁By	-3030
iful	-3031
▁Aud	-3032
▁Hel	-3033
▁Inn	-3034
▁Klim	-3035
▁WLAN	-3036
▁come	-3037
▁April	-3038
▁hatte	-3039
▁restaur	-3040
▁verfügbar	-3041
kre	-3042
lev	-3043
▁Kl	-3044
back	-3045
gabe	-3046
ving	-3047
▁Pan	-3048
▁pool	-3049
ritten	-3050
▁Leben	-3051
▁impro	-3052
▁reach	-3053
▁Rahmen	-3054
▁histor	-3055
▁kaufen	-3056
▁Minuten	-3057
▁weather	-3058
▁—	-3059
▁di	-3060
▁ed	-3061
abor	-3062
fert	-3063
urer	-3064
▁Are	-3065
▁flo	-3066
▁gest	-3067
commend	-3068
ichtige	-3069
IG	-3070
ms	-3071
oph	-3072
chan	-3073
▁mal	-3074
▁pat	-3075
sehen	-3076
▁dich	-3077
▁bitte	-3078
ikation	-3079
▁Erfahr	-3080
▁employ	-3081
▁invest	-3082
▁result	-3083
▁Schweiz	-3084
▁another	-3085
ano	-3086
fon	-3087
gre	-3088
▁Dok	-3089
▁opp	-3090
▁Sign	-3091
ichten	-3092
führung	-3093
▁guests	-3094
▁Bewertungen	-3095
ada	-3096
fil	-3097
▁God	-3098
ideos	-3099
uture	-3100
ustrie	-3101
ION	-3102
bel	-3103
til	-3104
cing	-3105
stra	-3106
utter	-3107
▁repr	-3108
▁Bitte	-3109
▁Druck	-3110
▁working	-3111
enbezogen	-3112
schließlich	-3113
-0	-3114
amt	-3115
ape	-3116
ehen	-3117
▁gra	-3118
▁imp	-3119
▁mag	-3120
ismus	-3121
▁Werk	-3122
altung	-3123
ondere	-3124
schied	-3125
▁Musik	-3126
▁heute	-3127
ierungs	-3128
▁Instit	-3129
▁Museum	-3130
▁kommen	-3131
▁further	-3132
▁schnell	-3133
AG	-3134
km	-3135
iels	-3136
▁Tur	-3137
▁mov	-3138
▁tro	-3139
anten	-3140
ießen	-3141
▁Data	-3142
▁Markt	-3143
▁close	-3144
▁perfe	-3145
ountain	-3146
▁Preise	-3147
▁buchen	-3148
▁helfen	-3149
▁Zentrum	-3150
▁example	-3151
▁funktion	-3152
mus	-3153
▁(3	-3154
▁II	-3155
aper	-3156
utzt	-3157
weis	-3158
würd	-3159
▁Jan	-3160
▁Zwe	-3161
▁iss	-3162
▁upd	-3163
etzen	-3164
▁fast	-3165
▁Strip	-3166
▁These	-3167
▁distr	-3168
▁Kategor	-3169
▁Schnapp	-3170
▁Verkauf	-3171
▁subject	-3172
▁performance	-3173
lös	-3174
▁22	-3175
crib	-3176
▁Kap	-3177
ables	-3178
▁areas	-3179
▁attra	-3180
▁polit	-3181
▁Access	-3182
▁Besuch	-3183
sterreich	-3184
▁Aktivitäten	-3185
aser	-3186
hler	-3187
▁Fol	-3188
alter	-3189
angen	-3190
▁port	-3191
bewert	-3192
liches	-3193
▁Schutz	-3194
▁Cookies	-3195
▁already	-3196
▁according	-3197
▁Partnersuche	-3198
▁Schnappschuss	-3199
the	-3200
ums	-3201
▁HD	-3202
apan	-3203
feld	-3204
ände	-3205
▁Loc	-3206
▁Tas	-3207
▁bzw	-3208
▁pack	-3209
lected	-3210
▁benöt	-3211
▁local	-3212
▁results	-3213
▁customers	-3214
-3	-3215
19	-3216
45	-3217
75	-3218
öße	-3219
▁Ev	-3220
anze	-3221
iben	-3222
▁Som	-3223
▁old	-3224
▁vol	-3225
sicht	-3226
▁tour	-3227
▁Stock	-3228
zeichnet	-3229
CD	-3230
ING	-3231
akf	-3232
bit	-3233
häng	-3234
ufen	-3235
▁Fuß	-3236
▁Sub	-3237
▁Sur	-3238
▁beh	-3239
▁nor	-3240
resse	-3241
▁geht	-3242
▁sett	-3243
▁zusätz	-3244
▁location	-3245
unk	-3246
▁Tw	-3247
ding	-3248
▁don	-3249
▁erst	-3250
▁happ	-3251
onders	-3252
▁Smart	-3253
▁files	-3254
▁pract	-3255
▁include	-3256
▁reviews	-3257
▁solutions	-3258
za	-3259
▁ü	-3260
▁ST	-3261
▁pos	-3262
lines	-3263
▁2011	-3264
▁Fest	-3265
verage	-3266
▁maxim	-3267
▁waren	-3268
▁Contact	-3269
▁network	-3270
▁verfügt	-3271
▁bathroom	-3272
▁verwenden	-3273
".	-3274
iod	-3275
bark	-3276
cker	-3277
▁Pla	-3278
ently	-3279
ittle	-3280
lands	-3281
ragen	-3282
▁Fern	-3283
igsten	-3284
▁allow	-3285
▁exist	-3286
▁short	-3287
lebörse	-3288
▁France	-3289
▁digital	-3290
▁Singlebörse	-3291
65	-3292
IM	-3293
lad	-3294
▁Wel	-3295
frage	-3296
inner	-3297
ützen	-3298
▁grow	-3299
etzung	-3300
▁point	-3301
▁Fragen	-3302
▁machine	-3303
▁sollten	-3304
▁designed	-3305
▁personenbezogen	-3306
ags	-3307
fäh	-3308
▁Öl	-3309
füll	-3310
verb	-3311
▁Bro	-3312
▁nun	-3313
iting	-3314
veral	-3315
▁100%	-3316
▁Antw	-3317
▁Mult	-3318
▁prom	-3319
▁cover	-3320
▁ihnen	-3321
▁please	-3322
partments	-3323
▁Business	-3324
▁environment	-3325
LE	-3326
Sp	-3327
kn	-3328
▁2,	-3329
▁Pe	-3330
▁500	-3331
▁dir	-3332
asing	-3333
house	-3334
rache	-3335
stadt	-3336
wards	-3337
örder	-3338
▁Schl	-3339
▁rund	-3340
▁team	-3341
▁natur	-3342
isierung	-3343
▁folgenden	-3344
▁transport	-3345
."	-3346
13	-3347
mäß	-3348
amin	-3349
eben	-3350
▁men	-3351
ested	-3352
ipping	-3353
▁Close	-3354
▁third	-3355
cessary	-3356
▁einmal	-3357
▁Hö	-3358
erra	-3359
läss	-3360
pack	-3361
esten	-3362
ielen	-3363
▁Auch	-3364
▁kont	-3365
▁situ	-3366
▁natür	-3367
▁contain	-3368
▁Facebook	-3369
▁industry	-3370
▁together	-3371
.”	-3372
omb	-3373
ocus	-3374
▁dom	-3375
chnik	-3376
▁Ents	-3377
▁body	-3378
▁euch	-3379
▁euro	-3380
▁event	-3381
▁method	-3382
▁Projekt	-3383
▁eigenen	-3384
une	-3385
Date	-3386
ilar	-3387
mark	-3388
▁nie	-3389
▁Gold	-3390
▁User	-3391
ysteme	-3392
▁Motor	-3393
▁arbeit	-3394
▁econom	-3395
▁health	-3396
▁National	-3397
aby	-3398
zer	-3399
▁90	-3400
▁IS	-3401
bung	-3402
iate	-3403
▁Cam	-3404
▁key	-3405
▁Meer	-3406
▁less	-3407
gestat	-3408
▁Blick	-3409
PS	-3410
hin	-3411
▁AS	-3412
ader	-3413
räge	-3414
vest	-3415
▁Ess	-3416
achen	-3417
punkt	-3418
▁land	-3419
▁suit	-3420
ulture	-3421
▁Küche	-3422
▁jeden	-3423
▁space	-3424
▁directly	-3425
▁beautiful	-3426
ety	-3427
ennt	-3428
ilet	-3429
▁lim	-3430
acter	-3431
▁Sant	-3432
▁food	-3433
akfast	-3434
▁Paris	-3435
▁ander	-3436
▁driver	-3437
forderungen	-3438
▁Restaurant	-3439
16	-3440
spe	-3441
▁IN	-3442
atis	-3443
pool	-3444
board	-3445
thing	-3446
▁Bill	-3447
▁Will	-3448
▁eben	-3449
▁item	-3450
nahmen	-3451
▁books	-3452
▁press	-3453
▁separ	-3454
barkeit	-3455
▁Market	-3456
▁Spiele	-3457
▁Rollens	-3458
Ver	-3459
gef	-3460
▁HP	-3461
▁UN	-3462
eign	-3463
▁Tro	-3464
▁ann	-3465
▁hil	-3466
tease	-3467
telle	-3468
▁Eing	-3469
▁Plan	-3470
▁type	-3471
▁South	-3472
▁enter	-3473
▁makes	-3474
ication	-3475
▁wollen	-3476
arbeiten	-3477
▁equipment	-3478
eep	-3479
utt	-3480
▁27	-3481
▁Bi	-3482
ived	-3483
rakt	-3484
welt	-3485
▁Spa	-3486
ators	-3487
ender	-3488
ource	-3489
▁Term	-3490
▁mark	-3491
▁sing	-3492
▁Elekt	-3493
▁means	-3494
▁Bilder	-3495
.)	-3496
ku	-3497
oul	-3498
▁80	-3499
▁Pa	-3500
▁gl	-3501
ging	-3502
▁occ	-3503
redit	-3504
▁Stat	-3505
▁turn	-3506
▁Beach	-3507
▁alles	-3508
▁einige	-3509
▁building	-3510
RE	-3511
ty	-3512
▁ca	-3513
▁lo	-3514
atal	-3515
side	-3516
ured	-3517
▁Vis	-3518
▁daß	-3519
gress	-3520
▁size	-3521
▁meine	-3522
▁Custom	-3523
▁extens	-3524
▁living	-3525
▁Arbeits	-3526
▁November	-3527
▁Apartment	-3528
▁Striptease	-3529
-,	-3530
▁Sl	-3531
▁Cre	-3532
▁Rem	-3533
▁ihm	-3534
itter	-3535
itäts	-3536
▁Ende	-3537
▁Russ	-3538
▁past	-3539
▁Super	-3540
▁moder	-3541
▁Garten	-3542
▁Flights	-3543
▁Prozess	-3544
▁various	-3545
▁standard	-3546
stellungen	-3547
Ch	-3548
ara	-3549
enef	-3550
furt	-3551
iken	-3552
ined	-3553
▁Val	-3554
▁hal	-3555
anced	-3556
ipped	-3557
vious	-3558
▁Open	-3559
▁etwa	-3560
▁trip	-3561
ließen	-3562
▁black	-3563
▁drive	-3564
▁parts	-3565
▁Finden	-3566
▁future	-3567
▁Vergleich	-3568
▁ausgestat	-3569
▁countries	-3570
▁recommend	-3571
▁Ferienwohn	-3572
▁Management	-3573
▁Mitarbeiter	-3574
.7	-3575
95	-3576
ül	-3577
bon	-3578
rif	-3579
▁Lux	-3580
▁let	-3581
▁Last	-3582
▁pres	-3583
▁send	-3584
▁Gegen	-3585
▁König	-3586
▁Power	-3587
▁persön	-3588
▁Auswahl	-3589
▁request	-3590
tal	-3591
▁Em	-3592
ired	-3593
wand	-3594
chten	-3595
orted	-3596
change	-3597
▁inform	-3598
.4	-3599
.6	-3600
1,	-3601
18	-3602
22	-3603
fa	-3604
raf	-3605
lett	-3606
▁Dan	-3607
▁Geh	-3608
▁abs	-3609
▁non	-3610
fläche	-3611
▁until	-3612
stellen	-3613
▁analys	-3614
▁specific	-3615
▁transfer	-3616
▁Bedienungsan	-3617
het	-3618
▁3-	-3619
▁Kr	-3620
here	-3621
ooth	-3622
▁Sat	-3623
▁Set	-3624
▁iPh	-3625
▁Rent	-3626
▁Such	-3627
▁flex	-3628
▁head	-3629
ruppen	-3630
▁ideal	-3631
▁Urlaub	-3632
▁create	-3633
▁Partner	-3634
▁Umgebung	-3635
▁consider	-3636
▁position	-3637
▁applications	-3638
14	-3639
agt	-3640
kur	-3641
▁Go	-3642
,000	-3643
idge	-3644
idung	-3645
▁Groß	-3646
finden	-3647
liegen	-3648
reiben	-3649
▁Richt	-3650
▁learn	-3651
▁vielen	-3652
▁Einsatz	-3653
▁Support	-3654
▁erstell	-3655
▁Personen	-3656
▁provides	-3657
▁required	-3658
TV	-3659
Un	-3660
bt	-3661
aker	-3662
ball	-3663
legt	-3664
▁Now	-3665
▁bew	-3666
▁fit	-3667
▁sil	-3668
▁wür	-3669
afety	-3670
arian	-3671
overn	-3672
▁Aber	-3673
▁side	-3674
▁text	-3675
ubehör	-3676
▁indem	-3677
▁Stunden	-3678
▁interest	-3679
▁Möglichkeit	-3680
▁35	-3681
▁la	-3682
ktor	-3683
zent	-3684
▁Mie	-3685
▁ear	-3686
▁umf	-3687
▁Fall	-3688
ancing	-3689
▁extra	-3690
maschine	-3691
▁necessary	-3692
▁Beschreibung	-3693
▁Rollenspiele	-3694
.8	-3695
PC	-3696
bs	-3697
box	-3698
ode	-3699
▁Ak	-3700
voll	-3701
▁Dre	-3702
▁Tor	-3703
▁web	-3704
ennen	-3705
igten	-3706
▁Dopp	-3707
▁Einz	-3708
▁York	-3709
▁give	-3710
ention	-3711
▁works	-3712
▁Frauen	-3713
▁Rechts	-3714
▁object	-3715
▁Energie	-3716
▁Program	-3717
dam	-3718
irc	-3719
▁Ra	-3720
jahr	-3721
ynam	-3722
▁Bal	-3723
▁Don	-3724
▁Comm	-3725
▁Sony	-3726
▁sale	-3727
ground	-3728
▁Analy	-3729
▁several	-3730
▁Beispiel	-3731
abr	-3732
bet	-3733
duc	-3734
----	-3735
orte	-3736
▁Gal	-3737
▁Weg	-3738
angeb	-3739
atest	-3740
baren	-3741
itzer	-3742
▁mind	-3743
cially	-3744
▁Inhal	-3745
▁games	-3746
▁iPhone	-3747
▁kannst	-3748
▁reserv	-3749
▁letzten	-3750
▁million	-3751
▁stellen	-3752
TS	-3753
use	-3754
aren	-3755
▁Kir	-3756
aging	-3757
▁July	-3758
▁line	-3759
▁live	-3760
bereit	-3761
▁compet	-3762
▁period	-3763
gleichen	-3764
▁Installation	-3765
iti	-3766
auen	-3767
flug	-3768
igte	-3769
mium	-3770
omet	-3771
▁Dus	-3772
▁öff	-3773
ament	-3774
icket	-3775
ooper	-3776
▁Herr	-3777
▁Team	-3778
▁Schul	-3779
▁defin	-3780
▁Sehens	-3781
▁return	-3782
▁constru	-3783
▁vollständ	-3784
▁University	-3785
ga	-3786
go	-3787
ka	-3788
ama	-3789
▁29	-3790
plan	-3791
plat	-3792
▁198	-3793
▁Feb	-3794
▁Pet	-3795
▁arch	-3796
▁deren	-3797
▁gesam	-3798
▁heart	-3799
▁treat	-3800
▁Nutzer	-3801
▁States	-3802
▁struct	-3803
▁Sehenswürd	-3804
▁Ho	-3805
▁TH	-3806
▁em	-3807
hers	-3808
iled	-3809
affen	-3810
▁Film	-3811
▁Shop	-3812
▁agre	-3813
▁clos	-3814
▁mess	-3815
▁plat	-3816
▁Dieser	-3817
▁Winter	-3818
▁author	-3819
▁select	-3820
▁social	-3821
▁Digital	-3822
▁language	-3823
ho	-3824
pä	-3825
dom	-3826
uhe	-3827
ools	-3828
▁Kre	-3829
aring	-3830
▁Juli	-3831
▁Raum	-3832
anlage	-3833
▁focus	-3834
▁human	-3835
▁macht	-3836
▁purch	-3837
▁Mittel	-3838
▁heraus	-3839
▁Weitere	-3840
▁gemeins	-3841
wendungen	-3842
▁contract	-3843
▁national	-3844
▁weltweit	-3845
23	-3846
▁Ve	-3847
osen	-3848
ully	-3849
▁Bank	-3850
▁West	-3851
heiten	-3852
▁Nacht	-3853
▁Press	-3854
▁above	-3855
▁stark	-3856
▁Proble	-3857
▁garden	-3858
▁General	-3859
▁additional	-3860
TC	-3861
▁Sy	-3862
▁na	-3863
fall	-3864
▁lot	-3865
oment	-3866
änger	-3867
äsent	-3868
▁Kauf	-3869
▁Test	-3870
iction	-3871
▁today	-3872
zufügen	-3873
▁leicht	-3874
▁receive	-3875
▁station	-3876
▁strateg	-3877
▁connection	-3878
vo	-3879
adem	-3880
edia	-3881
izin	-3882
laim	-3883
zieh	-3884
▁Oil	-3885
▁Grün	-3886
▁news	-3887
▁pict	-3888
idence	-3889
▁among	-3890
▁Familien	-3891
▁Personal	-3892
▁technical	-3893
bedingungen	-3894
▁unterstütz	-3895
uel	-3896
umm	-3897
ican	-3898
rift	-3899
rägt	-3900
uell	-3901
ules	-3902
anner	-3903
ritte	-3904
▁Bund	-3905
▁Luft	-3906
▁Pack	-3907
▁Terr	-3908
▁dest	-3909
▁dort	-3910
▁Hilfe	-3911
▁Platz	-3912
▁deals	-3913
▁front	-3914
▁imple	-3915
▁easily	-3916
▁verkauf	-3917
▁Angebote	-3918
▁entsprechen	-3919
gn	-3920
ham	-3921
inc	-3922
mat	-3923
▁AM	-3924
oney	-3925
osph	-3926
roid	-3927
▁(1)	-3928
▁End	-3929
▁Neu	-3930
▁bus	-3931
ances	-3932
▁Früh	-3933
▁camp	-3934
ancial	-3935
▁House	-3936
▁Liste	-3937
▁effic	-3938
▁kommt	-3939
▁Übers	-3940
▁center	-3941
▁events	-3942
▁little	-3943
▁Funktion	-3944
▁problems	-3945
▁solution	-3946
▁Badezimmer	-3947
▁ermöglicht	-3948
ney	-3949
afür	-3950
bert	-3951
imal	-3952
ouch	-3953
rodu	-3954
rown	-3955
▁Blu	-3956
▁Cur	-3957
▁Soc	-3958
▁neu	-3959
▁sea	-3960
▁ski	-3961
alled	-3962
üssel	-3963
▁2012	-3964
▁Jack	-3965
▁allem	-3966
richten	-3967
▁better	-3968
▁version	-3969
▁facilities	-3970
IV	-3971
ini	-3972
▁(4	-3973
ably	-3974
self	-3975
▁pan	-3976
▁run	-3977
icles	-3978
▁Wert	-3979
arante	-3980
reiche	-3981
▁strong	-3982
pecially	-3983
▁security	-3984
▁ebenfalls	-3985
▁erreichen	-3986
Te	-3987
VD	-3988
cks	-3989
mod	-3990
▁AN	-3991
▁Dec	-3992
▁Dem	-3993
▁arr	-3994
▁wid	-3995
ortun	-3996
▁Read	-3997
▁Text	-3998
▁Wien	-3999
▁feel	-4000
ichtet	-4001
▁Start	-4002
▁along	-4003
▁benef	-4004
▁categ	-4005
peratur	-4006
▁Gemein	-4007
▁belieb	-4008
▁regard	-4009
stützung	-4010
▁holiday	-4011
▁kitchen	-4012
▁unterst	-4013
▁Englisch	-4014
▁Österreich	-4015
▁unterschied	-4016
RA	-4017
äm	-4018
▁cy	-4019
.000	-4020
aken	-4021
inge	-4022
▁big	-4023
▁tas	-4024
▁Beit	-4025
▁Lang	-4026
▁bede	-4027
▁left	-4028
ension	-4029
letter	-4030
▁Exper	-4031
▁Namen	-4032
▁Villa	-4033
▁video	-4034
▁choose	-4035
▁Schwarz	-4036
▁bestimm	-4037
▁Verarbeitung	-4038
::	-4039
zü	-4040
ugen	-4041
▁ago	-4042
▁gre	-4043
▁love	-4044
alität	-4045
ellent	-4046
▁costs	-4047
▁deine	-4048
▁genau	-4049
▁Anzahl	-4050
▁Zugang	-4051
▁months	-4052
▁things	-4053
▁erforder	-4054
▁Frankfurt	-4055
▁requirements	-4056
UT	-4057
bei	-4058
ony	-4059
▁4-	-4060
uren	-4061
ledge	-4062
oints	-4063
▁Disp	-4064
nehmer	-4065
rosoft	-4066
unning	-4067
▁Cheap	-4068
▁Prote	-4069
▁beiden	-4070
▁ensure	-4071
▁mobile	-4072
▁browser	-4073
▁popular	-4074
▁Webseite	-4075
EG	-4076
dr	-4077
orb	-4078
▁CH	-4079
park	-4080
▁Ide	-4081
▁Maß	-4082
▁Wik	-4083
▁fav	-4084
istic	-4085
quare	-4086
▁Sams	-4087
anning	-4088
▁aktiv	-4089
▁sound	-4090
▁Tanzen	-4091
▁region	-4092
▁seinem	-4093
▁zeigen	-4094
▁connect	-4095
▁natural	-4096
▁partner	-4097
▁richtig	-4098
17	-4099
va	-4100
abil	-4101
oung	-4102
▁lar	-4103
esign	-4104
flüge	-4105
stein	-4106
▁2010	-4107
▁gute	-4108
▁erste	-4109
▁Bücher	-4110
▁Direct	-4111
▁approx	-4112
▁erfolg	-4113
▁besonders	-4114
,5	-4115
OP	-4116
ira	-4117
uth	-4118
▁cr	-4119
....	-4120
bank	-4121
door	-4122
ford	-4123
ians	-4124
ildo	-4125
▁Har	-4126
▁Mai	-4127
▁ask	-4128
▁erw	-4129
▁Öff	-4130
daten	-4131
range	-4132
uelle	-4133
▁Holz	-4134
▁Mich	-4135
▁Note	-4136
▁jewe	-4137
▁sure	-4138
▁wirk	-4139
ativen	-4140
ishing	-4141
▁staff	-4142
▁value	-4143
▁Weiter	-4144
▁concern	-4145
▁respect	-4146
▁Microsoft	-4147
▁Verbindung	-4148
▁Schlafzimmer	-4149
64	-4150
IF	-4151
ye	-4152
erk	-4153
▁Bay	-4154
▁Mär	-4155
▁veh	-4156
▁Mach	-4157
▁Main	-4158
▁Sand	-4159
▁deal	-4160
decken	-4161
▁needs	-4162
▁offen	-4163
▁state	-4164
▁zeigt	-4165
▁Center	-4166
▁Kommun	-4167
▁Strand	-4168
▁establ	-4169
▁series	-4170
▁single	-4171
▁temper	-4172
▁particip	-4173
▁materials	-4174
▁Description	-4175
ogn	-4176
iber	-4177
▁Pop	-4178
▁Ret	-4179
orden	-4180
ville	-4181
▁Bahn	-4182
▁Fach	-4183
▁Here	-4184
ruktur	-4185
▁clear	-4186
▁neues	-4187
▁often	-4188
▁white	-4189
▁Commun	-4190
▁entire	-4191
ondition	-4192
▁deutsch	-4193
▁meisten	-4194
▁related	-4195
▁document	-4196
äft	-4197
▁sy	-4198
chie	-4199
frei	-4200
▁Mot	-4201
▁Use	-4202
▁bal	-4203
▁mar	-4204
▁mix	-4205
▁yet	-4206
▁mass	-4207
▁zahl	-4208
▁Japan	-4209
▁Nicht	-4210
teilung	-4211
▁latest	-4212
▁review	-4213
▁München	-4214
▁Samsung	-4215
▁bedroom	-4216
▁distrib	-4217
▁activities	-4218
▁verschiedene	-4219
üf	-4220
mel	-4221
reg	-4222
val	-4223
▁IT	-4224
▁Je	-4225
ires	-4226
rech	-4227
▁Zum	-4228
▁fra	-4229
▁too	-4230
▁ähn	-4231
ength	-4232
▁Gast	-4233
▁Just	-4234
▁Check	-4235
▁Febru	-4236
▁Ihres	-4237
▁Innen	-4238
▁balls	-4239
▁email	-4240
▁lange	-4241
▁Europä	-4242
▁become	-4243
▁double	-4244
▁unique	-4245
▁Angebot	-4246
▁Versand	-4247
▁Mitglied	-4248
▁gefunden	-4249
▁guarante	-4250
▁apartment	-4251
▁completely	-4252
▁entwickelt	-4253
21	-4254
tr	-4255
osp	-4256
pol	-4257
▁hö	-4258
folgt	-4259
▁Club	-4260
▁Name	-4261
▁Over	-4262
▁four	-4263
ements	-4264
imming	-4265
tragen	-4266
▁Farbe	-4267
▁angeb	-4268
33	-4269
ta	-4270
ago	-4271
lei	-4272
ruf	-4273
aces	-4274
letz	-4275
stit	-4276
▁...	-4277
▁Mat	-4278
▁Sec	-4279
▁sog	-4280
▁Ange	-4281
▁Cons	-4282
▁inde	-4283
▁Recht	-4284
▁pages	-4285
▁statt	-4286
▁Körper	-4287
▁Region	-4288
▁hinaus	-4289
▁Veranst	-4290
▁Weather	-4291
▁created	-4292
richtungen	-4293
ba	-4294
ery	-4295
onn	-4296
urb	-4297
zif	-4298
lege	-4299
rael	-4300
wind	-4301
▁Sex	-4302
▁red	-4303
ücher	-4304
▁keep	-4305
▁weil	-4306
ething	-4307
lement	-4308
ources	-4309
▁print	-4310
undheit	-4311
ustrial	-4312
▁Aufent	-4313
▁common	-4314
▁normal	-4315
stattung	-4316
▁Holiday	-4317
▁Manufact	-4318
▁Probleme	-4319
▁erfahren	-4320
irl	-4321
ror	-4322
ikan	-4323
jähr	-4324
loss	-4325
▁put	-4326
ingen	-4327
▁Fire	-4328
▁nahe	-4329
▁perm	-4330
▁rate	-4331
▁town	-4332
assung	-4333
zeiten	-4334
▁Table	-4335
▁Unser	-4336
▁Woche	-4337
▁bevor	-4338
▁legal	-4339
uminium	-4340
▁really	-4341
▁Android	-4342
besondere	-4343
▁opportun	-4344
▁Transport	-4345
arf	-4346
ios	-4347
▁DE	-4348
▁EN	-4349
ells	-4350
stre	-4351
▁Hal	-4352
▁Kan	-4353
▁cut	-4354
▁tit	-4355
aming	-4356
feren	-4357
▁2008	-4358
▁Hist	-4359
▁Janu	-4360
▁Nord	-4361
▁doch	-4362
▁kind	-4363
ichert	-4364
opping	-4365
▁Light	-4366
▁elekt	-4367
▁gehen	-4368
▁model	-4369
▁regul	-4370
▁terra	-4371
ministr	-4372
▁könnte	-4373
▁longer	-4374
▁record	-4375
▁friends	-4376
▁suitable	-4377
▁Frankreich	-4378
möglichkeiten	-4379
100	-4380
lier	-4381
▁Dub	-4382
▁Jes	-4383
▁Kur	-4384
beads	-4385
itzen	-4386
lungs	-4387
▁Dank	-4388
▁Flor	-4389
▁date	-4390
elling	-4391
hunder	-4392
▁Weise	-4393
▁dafür	-4394
istance	-4395
▁öffent	-4396
▁Version	-4397
▁cookies	-4398
▁whether	-4399
▁Funktionen	-4400
48	-4401
que	-4402
▁CD	-4403
▁SE	-4404
nten	-4405
▁Rei	-4406
▁due	-4407
ervor	-4408
offee	-4409
▁Pool	-4410
▁Schm	-4411
▁card	-4412
▁publ	-4413
gangen	-4414
▁Lager	-4415
▁Licht	-4416
▁Media	-4417
▁Regel	-4418
▁aufge	-4419
▁relev	-4420
hersage	-4421
▁Selbst	-4422
▁making	-4423
▁bekannt	-4424
▁Erfahrung	-4425
▁Kategorie	-4426
▁ausgestattet	-4427
.9	-4428
aba	-4429
ley	-4430
ply	-4431
▁(5	-4432
▁ir	-4433
atic	-4434
lace	-4435
pose	-4436
ären	-4437
▁Mik	-4438
▁bin	-4439
auber	-4440
stant	-4441
thers	-4442
▁Glas	-4443
igungs	-4444
▁Frage	-4445
▁Gener	-4446
▁Other	-4447
▁achie	-4448
▁exclus	-4449
▁proper	-4450
▁Reviews	-4451
▁Station	-4452
▁interess	-4453
▁questions	-4454
▁especially	-4455
▁automatisch	-4456
“,	-4457
aps	-4458
zip	-4459
ense	-4460
▁Mad	-4461
▁Tod	-4462
▁Ven	-4463
oking	-4464
racht	-4465
▁Viel	-4466
▁schw	-4467
ourses	-4468
▁Eigen	-4469
▁Klima	-4470
sterdam	-4471
▁Europa	-4472
▁Hinter	-4473
▁erhält	-4474
▁suchen	-4475
▁wählen	-4476
▁Austria	-4477
▁However	-4478
▁Vertrag	-4479
▁character	-4480
bewertungen	-4481
geschlossen	-4482
▁unterstützt	-4483
▁Unterstützung	-4484
ees	-4485
▁ES	-4486
ache	-4487
just	-4488
kung	-4489
▁Net	-4490
▁say	-4491
icial	-4492
ivity	-4493
▁Herz	-4494
▁Kind	-4495
▁Leit	-4496
▁Rest	-4497
▁Wahl	-4498
▁risk	-4499
▁Autom	-4500
▁White	-4501
▁floor	-4502
▁given	-4503
▁darauf	-4504
▁einzel	-4505
▁simple	-4506
ierungen	-4507
lattform	-4508
▁Telefon	-4509
▁airport	-4510
▁weniger	-4511
▁Bewertung	-4512
▁currently	-4513
▁Verwendung	-4514
78	-4515
fun	-4516
ends	-4517
▁Ris	-4518
▁aff	-4519
▁dre	-4520
▁frü	-4521
▁try	-4522
leben	-4523
ounts	-4524
▁Firm	-4525
▁Hard	-4526
▁Lauf	-4527
▁Verw	-4528
▁cann	-4529
immung	-4530
lungen	-4531
▁analy	-4532
▁extre	-4533
▁speed	-4534
▁total	-4535
▁Sonnen	-4536
▁Versch	-4537
▁compon	-4538
▁option	-4539
▁reason	-4540
▁members	-4541
▁similar	-4542
▁univers	-4543
4-	-4544
AK	-4545
AY	-4546
▁DS	-4547
quem	-4548
quen	-4549
▁Dam	-4550
▁box	-4551
▁maj	-4552
chsel	-4553
ieten	-4554
itten	-4555
ühren	-4556
▁Band	-4557
▁hohe	-4558
▁Extre	-4559
▁guest	-4560
▁image	-4561
isieren	-4562
▁Invest	-4563
▁Manual	-4564
▁Mobile	-4565
▁Sonder	-4566
▁Suchen	-4567
ological	-4568
▁Browser	-4569
32	-4570
Ar	-4571
obs	-4572
▁32	-4573
▁45	-4574
aily	-4575
oder	-4576
▁Pap	-4577
▁Sam	-4578
▁rad	-4579
▁tun	-4580
▁Vert	-4581
▁häuf	-4582
ferenz	-4583
▁Künst	-4584
▁Saint	-4585
▁jedes	-4586
▁known	-4587
▁share	-4588
▁appear	-4589
hibition	-4590
richtung	-4591
▁Hamburg	-4592
▁Zubehör	-4593
▁Amsterdam	-4594
▁developed	-4595
▁Ergebnisse	-4596
TE	-4597
zt	-4598
üs	-4599
öne	-4600
▁Ul	-4601
arth	-4602
hren	-4603
mbol	-4604
rock	-4605
äter	-4606
▁Act	-4607
▁Oct	-4608
▁sun	-4609
ahren	-4610
▁Blue	-4611
▁Mart	-4612
▁Oper	-4613
▁Snap	-4614
▁tele	-4615
system	-4616
▁color	-4617
▁might	-4618
▁depend	-4619
▁Familie	-4620
▁Treiber	-4621
▁options	-4622
▁approach	-4623
▁question	-4624
IR	-4625
avon	-4626
ften	-4627
ilen	-4628
mann	-4629
shot	-4630
stag	-4631
änge	-4632
▁enc	-4633
annen	-4634
▁John	-4635
▁Sitz	-4636
▁clim	-4637
▁rent	-4638
▁wide	-4639
ringen	-4640
▁Innov	-4641
▁Schne	-4642
▁ganze	-4643
▁train	-4644
▁whole	-4645
bildung	-4646
▁Office	-4647
▁öffnen	-4648
▁Komment	-4649
▁besteht	-4650
▁training	-4651
vorhersage	-4652
3,	-4653
PR	-4654
gar	-4655
tag	-4656
▁Cy	-4657
▁Ol	-4658
lied	-4659
schl	-4660
▁Tür	-4661
▁pie	-4662
ailed	-4663
anges	-4664
jekte	-4665
▁Baum	-4666
▁Geld	-4667
▁June	-4668
▁Juni	-4669
▁qual	-4670
▁upon	-4671
rieden	-4672
ustain	-4673
äglich	-4674
▁Click	-4675
▁Kraft	-4676
▁Price	-4677
ireless	-4678
▁Travel	-4679
▁ground	-4680
▁hinter	-4681
▁nehmen	-4682
▁Dateien	-4683
▁bleiben	-4684
▁general	-4685
▁Dokument	-4686
▁processes	-4687
▁construction	-4688
▁Ferienwohnungen	-4689
ckt	-4690
ühl	-4691
▁sn	-4692
▁Buy	-4693
elten	-4694
ieder	-4695
ought	-4696
▁Rein	-4697
▁Stad	-4698
▁prec	-4699
▁ersch	-4700
▁media	-4701
▁Dusche	-4702
▁sofort	-4703
▁Austral	-4704
▁Bestell	-4705
▁Camping	-4706
▁Italien	-4707
▁Special	-4708
▁surround	-4709
▁weiteren	-4710
▁wirklich	-4711
▁Verantwort	-4712
▁responsible	-4713
ja	-4714
ko	-4715
zy	-4716
alu	-4717
gra	-4718
sta	-4719
avig	-4720
best	-4721
▁Jed	-4722
▁Män	-4723
▁aud	-4724
iesen	-4725
ungsk	-4726
▁2007	-4727
▁Berg	-4728
▁Augen	-4729
▁Größe	-4730
▁North	-4731
▁glass	-4732
▁schön	-4733
▁takes	-4734
▁unten	-4735
▁Altern	-4736
▁Israel	-4737
▁Privat	-4738
▁global	-4739
▁nature	-4740
▁Display	-4741
▁certain	-4742
▁klicken	-4743
▁equipped	-4744
En	-4745
MS	-4746
bor	-4747
lax	-4748
▁CO	-4749
haft	-4750
text	-4751
▁Abs	-4752
▁Key	-4753
▁Mos	-4754
▁Süd	-4755
apter	-4756
fully	-4757
▁Auss	-4758
▁Haut	-4759
▁jede	-4760
bieter	-4761
istics	-4762
umente	-4763
▁Water	-4764
▁least	-4765
▁besser	-4766
▁einzig	-4767
▁sowohl	-4768
▁spezie	-4769
▁Automat	-4770
▁Develop	-4771
▁history	-4772
▁mehrere	-4773
▁storage	-4774
itzerland	-4775
▁implement	-4776
▁something	-4777
▁Jahrhunder	-4778
rü	-4779
,00	-4780
ipe	-4781
oci	-4782
oes	-4783
uls	-4784
most	-4785
▁oil	-4786
inger	-4787
isted	-4788
▁Rock	-4789
▁once	-4790
▁sent	-4791
▁uses	-4792
▁warm	-4793
eignet	-4794
freund	-4795
▁brand	-4796
▁fully	-4797
▁hinzu	-4798
▁steel	-4799
▁Lösung	-4800
▁Themen	-4801
▁allows	-4802
▁button	-4803
▁konnte	-4804
▁rights	-4805
genommen	-4806
▁Compare	-4807
▁courses	-4808
▁darüber	-4809
▁devices	-4810
▁feature	-4811
▁partners	-4812
▁platform	-4813
.“	-4814
df	-4815
car	-4816
▁Av	-4817
igin	-4818
iple	-4819
itze	-4820
onus	-4821
stär	-4822
▁Box	-4823
▁Mor	-4824
▁ruh	-4825
Datei	-4826
▁Poly	-4827
▁Sens	-4828
▁That	-4829
▁vier	-4830
minute	-4831
zeitig	-4832
▁Thema	-4833
▁davon	-4834
itation	-4835
ultural	-4836
▁Island	-4837
▁Photos	-4838
▁kleine	-4839
▁safety	-4840
▁kleinen	-4841
▁genießen	-4842
▁Frühstück	-4843
▁Millionen	-4844
▁collection	-4845
uc	-4846
ais	-4847
emb	-4848
gal	-4849
ias	-4850
äll	-4851
▁2-	-4852
▁Afr	-4853
▁Okt	-4854
▁dry	-4855
▁sle	-4856
▁2000	-4857
▁bill	-4858
▁foot	-4859
▁phys	-4860
▁skin	-4861
▁wish	-4862
erecht	-4863
ichern	-4864
▁Green	-4865
▁Italy	-4866
▁sogar	-4867
▁think	-4868
▁women	-4869
entwick	-4870
▁Resort	-4871
▁einges	-4872
▁erklär	-4873
▁screen	-4874
▁Marketing	-4875
▁comfortable	-4876
▁automatically	-4877
CO	-4878
DS	-4879
”,	-4880
agn	-4881
▁31	-4882
▁op	-4883
band	-4884
mess	-4885
tels	-4886
▁Alb	-4887
▁Max	-4888
▁lux	-4889
▁pot	-4890
atory	-4891
besch	-4892
rench	-4893
ronic	-4894
zeigt	-4895
▁Voll	-4896
achten	-4897
folgen	-4898
▁Enter	-4899
▁links	-4900
▁major	-4901
▁views	-4902
▁Wochen	-4903
▁called	-4904
▁continu	-4905
▁express	-4906
▁Lösungen	-4907
▁innovative	-4908
▁Datenschutz	-4909
▁traditional	-4910
▁Unternehmens	-4911
▁insbesondere	-4912
42	-4913
ena	-4914
date	-4915
riff	-4916
▁Kil	-4917
▁Ton	-4918
▁tax	-4919
▁Wand	-4920
▁begr	-4921
▁bott	-4922
▁self	-4923
ashion	-4924
spruch	-4925
▁cross	-4926
▁Finanz	-4927
▁Integr	-4928
▁cannot	-4929
▁hervor	-4930
▁shower	-4931
icherung	-4932
▁ansehen	-4933
▁average	-4934
▁delivery	-4935
▁folgende	-4936
▁Anwendung	-4937
▁connected	-4938
▁represent	-4939
▁Gesundheit	-4940
▁professional	-4941
UL	-4942
sy	-4943
mas	-4944
ämp	-4945
airs	-4946
eint	-4947
iedr	-4948
▁Arm	-4949
▁Fit	-4950
▁Jet	-4951
▁Mun	-4952
▁mic	-4953
▁ple	-4954
▁tru	-4955
altet	-4956
ublik	-4957
ücken	-4958
▁Kopf	-4959
▁Kühl	-4960
▁Mann	-4961
▁call	-4962
▁pain	-4963
handen	-4964
ierter	-4965
iligen	-4966
ternal	-4967
twagen	-4968
▁Neben	-4969
▁relat	-4970
▁study	-4971
▁Private	-4972
zustellen	-4973
▁gegenüber	-4974
▁therefore	-4975
▁Geschichte	-4976
IA	-4977
ua	-4978
amb	-4979
yal	-4980
▁70	-4981
▁BM	-4982
▁el	-4983
annt	-4984
bens	-4985
lies	-4986
▁Equ	-4987
▁Imm	-4988
▁cop	-4989
▁mot	-4990
ernen	-4991
ither	-4992
▁Hall	-4993
▁Seit	-4994
▁circ	-4995
attery	-4996
▁phone	-4997
vention	-4998
▁Jahres	-4999
▁Kultur	-5000
▁highly	-5001
einander	-5002
▁measure	-5003
▁Snapshot	-5004
▁includes	-5005
▁original	-5006
▁selection	-5007
▁installation	-5008
▁Anforderungen	-5009
wär	-5010
▁Et	-5011
▁Nr	-5012
/201	-5013
clud	-5014
iler	-5015
onds	-5016
orgt	-5017
▁oft	-5018
freie	-5019
ients	-5020
liers	-5021
mosph	-5022
prise	-5023
▁Bran	-5024
▁Disc	-5025
▁Jesus	-5026
▁Suite	-5027
▁Union	-5028
▁block	-5029
▁daher	-5030
▁goods	-5031
▁Barcel	-5032
▁confirm	-5033
▁gemacht	-5034
▁surface	-5035
▁befinden	-5036
▁enthalten	-5037
▁financial	-5038
Be	-5039
wan	-5040
ilfe	-5041
othe	-5042
star	-5043
▁kom	-5044
▁lay	-5045
geber	-5046
gehen	-5047
poses	-5048
▁2006	-5049
▁Full	-5050
▁Golf	-5051
▁Städ	-5052
▁WiFi	-5053
▁fund	-5054
▁hold	-5055
estens	-5056
▁Board	-5057
▁miles	-5058
▁plant	-5059
▁stren	-5060
technik	-5061
verläss	-5062
▁bequem	-5063
▁consum	-5064
▁findet	-5065
▁photos	-5066
▁collect	-5067
▁discover	-5068
▁included	-5069
34	-5070
ola	-5071
ras	-5072
rid	-5073
son	-5074
bach	-5075
meld	-5076
▁Exp	-5077
▁rev	-5078
figur	-5079
recht	-5080
▁Also	-5081
▁Bath	-5082
kunden	-5083
selves	-5084
▁Women	-5085
▁autom	-5086
▁cable	-5087
▁green	-5088
▁ihrem	-5089
▁later	-5090
▁super	-5091
acation	-5092
wertige	-5093
▁Liebes	-5094
▁Wieder	-5095
▁charge	-5096
▁damage	-5097
▁mechan	-5098
▁secure	-5099
▁Während	-5100
▁Barcelona	-5101
▁Mietwagen	-5102
▁knowledge	-5103
▁Apartments	-5104
▁profession	-5105
▁Switzerland	-5106
IE	-5107
far	-5108
iko	-5109
vin	-5110
äng	-5111
▁Ba	-5112
▁MP	-5113
dule	-5114
ller	-5115
oden	-5116
ählt	-5117
▁Cap	-5118
▁Inc	-5119
▁erf	-5120
zeuge	-5121
▁Edel	-5122
inning	-5123
rachen	-5124
treten	-5125
▁Conne	-5126
▁begin	-5127
▁relax	-5128
▁Allgem	-5129
▁Steuer	-5130
▁Studio	-5131
▁amount	-5132
▁choice	-5133
▁früher	-5134
▁supply	-5135
▁Oktober	-5136
▁offered	-5137
▁increase	-5138
▁einzigart	-5139
iar	-5140
see	-5141
äum	-5142
▁AC	-5143
▁ce	-5144
eits	-5145
iers	-5146
ounc	-5147
weet	-5148
▁Cle	-5149
▁Eff	-5150
▁dat	-5151
▁inc	-5152
atten	-5153
inden	-5154
light	-5155
urers	-5156
▁oben	-5157
▁unbe	-5158
linien	-5159
ronics	-5160
schein	-5161
▁Jetzt	-5162
▁built	-5163
▁claim	-5164
▁gespe	-5165
▁immed	-5166
▁jedem	-5167
▁Einzel	-5168
▁Modell	-5169
▁higher	-5170
▁Dancing	-5171
▁Manager	-5172
▁booking	-5173
▁electric	-5174
▁projects	-5175
▁hinzufügen	-5176
▁temperature	-5177
▁herunterladen	-5178
28	-5179
EF	-5180
OD	-5181
mon	-5182
opt	-5183
▁0,	-5184
▁5-	-5185
ania	-5186
▁300	-5187
▁Bil	-5188
▁DVD	-5189
▁Hot	-5190
▁Kal	-5191
▁ord	-5192
acity	-5193
▁Baby	-5194
▁Cost	-5195
▁Mein	-5196
▁feed	-5197
▁höch	-5198
▁mean	-5199
▁Cloud	-5200
▁Tagen	-5201
▁forec	-5202
▁gerne	-5203
▁terms	-5204
▁track	-5205
▁Sommer	-5206
▁dessen	-5207
▁garant	-5208
arbeitet	-5209
▁Registr	-5210
▁terrace	-5211
▁distance	-5212
▁vorhanden	-5213
27	-5214
MP	-5215
ünf	-5216
▁Hy	-5217
bahn	-5218
nete	-5219
pper	-5220
▁Dav	-5221
▁Mem	-5222
▁Tab	-5223
fluss	-5224
▁Führ	-5225
▁Plus	-5226
▁Zust	-5227
▁abge	-5228
langen	-5229
▁First	-5230
▁Intel	-5231
▁party	-5232
▁store	-5233
▁ganzen	-5234
▁gehört	-5235
▁intell	-5236
▁Philips	-5237
▁Zukunft	-5238
▁describ	-5239
▁Position	-5240
▁signific	-5241
▁veröffent	-5242
▁Aufenthalt	-5243
▁Forschungs	-5244
▁ermöglichen	-5245
-5	-5246
68	-5247
Al	-5248
Le	-5249
OC	-5250
üß	-5251
fel	-5252
oon	-5253
erei	-5254
este	-5255
iker	-5256
izes	-5257
ored	-5258
temp	-5259
ässt	-5260
▁Bud	-5261
▁Kat	-5262
▁Tar	-5263
▁Whe	-5264
▁zie	-5265
fahrt	-5266
▁lock	-5267
▁stra	-5268
▁unit	-5269
abhäng	-5270
atalog	-5271
leplay	-5272
versch	-5273
▁Stück	-5274
▁apply	-5275
▁stock	-5276
▁style	-5277
▁watch	-5278
▁Bundes	-5279
▁europä	-5280
▁remain	-5281
▁remote	-5282
▁rental	-5283
ationale	-5284
otograph	-5285
▁Sprache	-5286
▁experien	-5287
ooperation	-5288
49	-5289
UP	-5290
td	-5291
lau	-5292
öst	-5293
▁GB	-5294
aill	-5295
ampf	-5296
gefü	-5297
hang	-5298
hern	-5299
hnen	-5300
isse	-5301
onto	-5302
äude	-5303
▁Cho	-5304
iegel	-5305
ienen	-5306
immen	-5307
inken	-5308
▁Mass	-5309
▁Pres	-5310
▁gilt	-5311
▁gold	-5312
weisen	-5313
▁Games	-5314
▁Kabel	-5315
▁basis	-5316
▁daran	-5317
▁lesen	-5318
▁lässt	-5319
▁sales	-5320
▁title	-5321
zentrum	-5322
züglich	-5323
▁Engine	-5324
▁erlaub	-5325
▁govern	-5326
▁policy	-5327
▁school	-5328
ducation	-5329
▁purpose	-5330
▁verfügen	-5331
IK	-5332
Aus	-5333
geh	-5334
▁Än	-5335
auna	-5336
emin	-5337
lang	-5338
oman	-5339
wide	-5340
▁Kin	-5341
▁Nur	-5342
▁lok	-5343
▁lov	-5344
stahl	-5345
terne	-5346
unkte	-5347
ünsch	-5348
▁Höhe	-5349
▁Kaff	-5350
▁draw	-5351
▁weiß	-5352
uellen	-5353
öffnet	-5354
▁Class	-5355
▁Count	-5356
▁Grand	-5357
▁board	-5358
▁einge	-5359
▁never	-5360
▁round	-5361
▁types	-5362
▁Doppel	-5363
▁Videos	-5364
scheiden	-5365
▁Entsche	-5366
▁Schritt	-5367
▁discuss	-5368
▁tickets	-5369
▁extension	-5370
▁Bedingungen	-5371
▁einschließlich	-5372
Fl	-5373
▁u	-5374
erc	-5375
hel	-5376
kts	-5377
ora	-5378
anda	-5379
hent	-5380
önen	-5381
ösen	-5382
▁Day	-5383
▁hot	-5384
endes	-5385
istry	-5386
itect	-5387
ograf	-5388
olden	-5389
ption	-5390
▁2009	-5391
▁Cour	-5392
▁Flex	-5393
▁Prüf	-5394
▁subs	-5395
atives	-5396
führer	-5397
▁comes	-5398
▁sites	-5399
ception	-5400
gesehen	-5401
▁parking	-5402
▁Original	-5403
▁purposes	-5404
▁Available	-5405
▁Technology	-5406
▁everything	-5407
gg	-5408
asy	-5409
▁Id	-5410
▁OS	-5411
erst	-5412
ided	-5413
irit	-5414
uert	-5415
utet	-5416
wood	-5417
▁aim	-5418
cling	-5419
karte	-5420
rance	-5421
ziert	-5422
▁Only	-5423
▁Weiß	-5424
▁virt	-5425
estern	-5426
pected	-5427
tended	-5428
▁Boden	-5429
▁prior	-5430
▁gewähr	-5431
▁simply	-5432
ichtigen	-5433
tschafts	-5434
▁Rauchen	-5435
▁Spezial	-5436
▁erfolgt	-5437
▁programs	-5438
▁employees	-5439
▁vollständig	-5440
TH	-5441
fic	-5442
lam	-5443
umb	-5444
unt	-5445
äte	-5446
▁Zw	-5447
hing	-5448
ills	-5449
lant	-5450
sych	-5451
ural	-5452
▁Dez	-5453
asche	-5454
asons	-5455
gerät	-5456
▁Code	-5457
▁Real	-5458
▁erhö	-5459
▁half	-5460
▁safe	-5461
dienst	-5462
ession	-5463
ienste	-5464
▁Share	-5465
▁shows	-5466
imately	-5467
ologies	-5468
▁Casino	-5469
▁either	-5470
▁itself	-5471
▁wissen	-5472
standing	-5473
▁Fingern	-5474
▁arbeiten	-5475
▁exchange	-5476
▁geeignet	-5477
▁angeboten	-5478
▁relations	-5479
lig	-5480
uis	-5481
ula	-5482
onen	-5483
rieg	-5484
word	-5485
▁Gel	-5486
▁Hyd	-5487
▁Ros	-5488
amous	-5489
ibaba	-5490
irmen	-5491
äuser	-5492
▁Frau	-5493
▁Plat	-5494
▁Sale	-5495
▁Samm	-5496
▁flow	-5497
▁kurz	-5498
▁reli	-5499
▁took	-5500
kungen	-5501
schirm	-5502
▁Außer	-5503
▁Links	-5504
▁gemäß	-5505
▁gives	-5506
▁going	-5507
▁items	-5508
▁steps	-5509
▁unver	-5510
▁Wählen	-5511
▁profit	-5512
▁stellt	-5513
handlung	-5514
indungen	-5515
▁Wohnung	-5516
▁notwend	-5517
▁register	-5518
▁Gesellschaft	-5519
6)	-5520
IX	-5521
MA	-5522
gu	-5523
ala	-5524
bas	-5525
▁Of	-5526
▁Ta	-5527
ativ	-5528
ifik	-5529
iles	-5530
werb	-5531
▁Map	-5532
▁Rec	-5533
akter	-5534
uchte	-5535
zentr	-5536
▁Lord	-5537
▁Situ	-5538
▁wood	-5539
coming	-5540
illage	-5541
ändert	-5542
▁Color	-5543
▁absol	-5544
▁Centre	-5545
▁Medien	-5546
▁Nutzen	-5547
▁Vorsch	-5548
▁accept	-5549
▁advant	-5550
▁divers	-5551
▁Control	-5552
▁contrib	-5553
▁gehören	-5554
▁täglich	-5555
▁verbess	-5556
▁Terrasse	-5557
▁selected	-5558
▁documents	-5559
▁installed	-5560
▁operating	-5561
2)	-5562
200	-5563
aar	-5564
dle	-5565
set	-5566
tch	-5567
▁tw	-5568
ivil	-5569
piel	-5570
reit	-5571
▁Las	-5572
▁sei	-5573
▁why	-5574
gency	-5575
ialog	-5576
preis	-5577
spiel	-5578
▁Lear	-5579
▁Vien	-5580
▁Year	-5581
etooth	-5582
ichter	-5583
kugeln	-5584
▁March	-5585
▁minim	-5586
▁neben	-5587
▁teach	-5588
▁Billig	-5589
▁Gruppe	-5590
▁Metall	-5591
▁points	-5592
▁sports	-5593
▁später	-5594
▁stored	-5595
▁Alibaba	-5596
▁Premium	-5597
▁gegeben	-5598
▁protect	-5599
▁registr	-5600
▁analysis	-5601
▁forecast	-5602
▁nächsten	-5603
▁properly	-5604
▁schnelle	-5605
▁Maschinen	-5606
▁verkaufen	-5607
98	-5608
We	-5609
ENT	-5610
ürz	-5611
▁Op	-5612
▁WC	-5613
▁120	-5614
▁Joh	-5615
▁Les	-5616
▁Low	-5617
▁Pay	-5618
based	-5619
örter	-5620
▁acqu	-5621
kosten	-5622
ration	-5623
roller	-5624
▁Abend	-5625
▁Falls	-5626
▁Music	-5627
▁Store	-5628
▁added	-5629
▁cloud	-5630
▁hohen	-5631
▁lower	-5632
▁touch	-5633
▁würde	-5634
▁Street	-5635
▁colour	-5636
▁groups	-5637
▁Ländern	-5638
▁October	-5639
▁enthält	-5640
▁Roleplay	-5641
▁Industrie	-5642
▁aktuellen	-5643
unternehmen	-5644
▁increasing	-5645
▁Anwendungen	-5646
▁Möglichkeiten	-5647
OG	-5648
gy	-5649
Die	-5650
ico	-5651
iol	-5652
▁48	-5653
▁Ap	-5654
▁Os	-5655
▁ak	-5656
odes	-5657
rate	-5658
wers	-5659
▁Fal	-5660
▁Ist	-5661
▁Pfl	-5662
▁Zus	-5663
▁ess	-5664
▁sav	-5665
▁(201	-5666
▁Komb	-5667
▁Then	-5668
▁Wach	-5669
▁done	-5670
▁note	-5671
▁Stein	-5672
▁betre	-5673
▁corre	-5674
▁decor	-5675
▁early	-5676
▁guten	-5677
ebsites	-5678
▁Farben	-5679
▁Garden	-5680
▁eigene	-5681
▁images	-5682
▁Kingdom	-5683
▁complex	-5684
▁quickly	-5685
▁Customer	-5686
▁Künstler	-5687
▁Netzwerk	-5688
▁planning	-5689
▁treatment	-5690
▁throughout	-5691
▁wichtigsten	-5692
Ex	-5693
ih	-5694
ki	-5695
EST	-5696
▁ID	-5697
time	-5698
unch	-5699
iment	-5700
linie	-5701
mente	-5702
▁Lake	-5703
▁dank	-5704
▁miss	-5705
ending	-5706
iately	-5707
plätze	-5708
▁Beste	-5709
▁Every	-5710
▁money	-5711
▁tools	-5712
ordnung	-5713
tenance	-5714
▁Benutz	-5715
▁Fehler	-5716
▁Umwelt	-5717
▁ausgew	-5718
▁erweit	-5719
▁möchte	-5720
▁places	-5721
▁summer	-5722
▁Network	-5723
▁Verkehr	-5724
▁Aluminium	-5725
▁restaurant	-5726
▁Sicherheits	-5727
▁restaurants	-5728
▁Liebeskugeln	-5729
▁Wissenschaft	-5730
EU	-5731
NA	-5732
OW	-5733
rab	-5734
öhn	-5735
▁AB	-5736
▁SP	-5737
▁kg	-5738
gien	-5739
itts	-5740
mals	-5741
orre	-5742
ourn	-5743
wner	-5744
▁Alt	-5745
▁Gas	-5746
▁Gre	-5747
▁Hor	-5748
▁Los	-5749
▁Mid	-5750
▁sex	-5751
▁Chin	-5752
▁März	-5753
▁Word	-5754
▁base	-5755
▁fort	-5756
▁road	-5757
▁thus	-5758
illing	-5759
riften	-5760
stehen	-5761
ziehen	-5762
▁Strom	-5763
▁frame	-5764
flächen	-5765
▁Entfer	-5766
▁Geräte	-5767
▁Mutter	-5768
▁across	-5769
▁extrem	-5770
▁format	-5771
▁player	-5772
ierenden	-5773
▁Spieler	-5774
▁Systems	-5775
▁challen	-5776
▁maximum	-5777
▁monitor	-5778
▁economic	-5779
▁measures	-5780
▁relevant	-5781
▁yourself	-5782
▁benötigen	-5783
▁breakfast	-5784
▁jederzeit	-5785
▁significant	-5786
▁erforderlich	-5787
▁unterstützen	-5788
▁internationalen	-5789
6,	-5790
77	-5791
GB	-5792
tt	-5793
cer	-5794
▁AL	-5795
▁Lo	-5796
erie	-5797
itar	-5798
raul	-5799
▁Ans	-5800
▁HER	-5801
▁Lab	-5802
▁Ltd	-5803
▁Rab	-5804
▁fly	-5805
imate	-5806
teilt	-5807
unsch	-5808
▁Well	-5809
aschen	-5810
ischem	-5811
isions	-5812
stoffe	-5813
▁Liebe	-5814
▁betro	-5815
▁creat	-5816
▁daily	-5817
▁invol	-5818
▁motor	-5819
▁young	-5820
esented	-5821
minuten	-5822
▁Domain	-5823
▁Karten	-5824
▁report	-5825
angebote	-5826
▁Anfrage	-5827
▁Inhalte	-5828
▁Science	-5829
▁highest	-5830
▁optimal	-5831
▁payment	-5832
▁usually	-5833
ielsweise	-5834
▁Leistung	-5835
▁mountain	-5836
▁operation	-5837
▁verbunden	-5838
▁components	-5839
▁Klimaanlage	-5840
▁günstigsten	-5841
▁manufacturer	-5842
55	-5843
Hz	-5844
VC	-5845
ius	-5846
len	-5847
ült	-5848
▁2:	-5849
▁OF	-5850
ande	-5851
▁Rot	-5852
▁Rou	-5853
▁dür	-5854
akers	-5855
aktiv	-5856
attle	-5857
ielle	-5858
order	-5859
ordin	-5860
änden	-5861
▁2020	-5862
▁prep	-5863
▁soon	-5864
ferred	-5865
▁Meter	-5866
▁Swiss	-5867
▁Tisch	-5868
▁chann	-5869
▁quiet	-5870
schrank	-5871
▁Things	-5872
▁cities	-5873
▁growth	-5874
▁having	-5875
▁instit	-5876
▁length	-5877
▁metres	-5878
▁server	-5879
▁sozial	-5880
▁ändern	-5881
▁Rentals	-5882
▁continue	-5883
▁Antworten	-5884
▁Institute	-5885
vailability	-5886
bn	-5887
fs	-5888
iam	-5889
ral	-5890
uts	-5891
▁Cr	-5892
▁PS	-5893
ares	-5894
ceed	-5895
cies	-5896
ffic	-5897
more	-5898
nehm	-5899
onym	-5900
resp	-5901
▁Fed	-5902
▁Typ	-5903
abase	-5904
agram	-5905
ellow	-5906
eltoe	-5907
▁Ball	-5908
▁Denn	-5909
▁Eben	-5910
▁Meth	-5911
▁Mini	-5912
▁Prin	-5913
▁code	-5914
▁empf	-5915
▁iPad	-5916
▁plug	-5917
lation	-5918
raucht	-5919
teilen	-5920
▁Colle	-5921
▁Spain	-5922
▁State	-5923
Adresse	-5924
zeichen	-5925
▁keinen	-5926
▁central	-5927
▁outside	-5928
leitungen	-5929
▁Cameltoe	-5930
▁benutzen	-5931
▁purchase	-5932
windigkeit	-5933
▁accordance	-5934
!!	-5935
ava	-5936
ita	-5937
oga	-5938
oke	-5939
uit	-5940
▁3,	-5941
▁MA	-5942
icks	-5943
komp	-5944
orge	-5945
▁150	-5946
▁400	-5947
▁Cop	-5948
▁Mel	-5949
▁Num	-5950
▁Sun	-5951
▁Syn	-5952
▁Tax	-5953
▁emb	-5954
▁led	-5955
▁nah	-5956
icken	-5957
reise	-5958
riter	-5959
teuer	-5960
▁Bang	-5961
▁Heiz	-5962
▁Ther	-5963
▁five	-5964
annten	-5965
ienten	-5966
lösung	-5967
ometer	-5968
urance	-5969
utlich	-5970
zeugen	-5971
zielle	-5972
▁Flach	-5973
▁Klass	-5974
haltung	-5975
raucher	-5976
▁Double	-5977
▁Herzen	-5978
▁conven	-5979
▁others	-5980
▁switch	-5981
▁transp	-5982
▁Monaten	-5983
▁Bluetooth	-5984
▁Kostenlos	-5985
▁excellent	-5986
▁Produktion	-5987
▁Temperatur	-5988
▁gleichzeitig	-5989
1)	-5990
2-	-5991
Er	-5992
PU	-5993
hm	-5994
Mod	-5995
aug	-5996
hre	-5997
umn	-5998
▁bi	-5999
eden	-6000
fehl	-6001
icon	-6002
idel	-6003
ösch	-6004
▁dra	-6005
▁mid	-6006
asure	-6007
füllt	-6008
mäßig	-6009
▁Feld	-6010
▁Most	-6011
▁Sort	-6012
▁Tool	-6013
▁Wein	-6014
▁fire	-6015
▁heat	-6016
▁load	-6017
▁rein	-6018
▁wine	-6019
System	-6020
wasser	-6021
▁Audio	-6022
▁Dildo	-6023
▁Radio	-6024
▁belie	-6025
prozess	-6026
▁During	-6027
▁Eigent	-6028
▁Filter	-6029
▁Reisen	-6030
▁answer	-6031
▁deinen	-6032
▁determ	-6033
▁enable	-6034
▁Antwort	-6035
▁Company	-6036
▁forward	-6037
▁improve	-6038
▁parties	-6039
▁regular	-6040
▁Products	-6041
▁aktuelle	-6042
▁aufgrund	-6043
▁bestehen	-6044
▁previous	-6045
▁settings	-6046
▁natürlich	-6047
ij	-6048
ima	-6049
▁4.	-6050
cape	-6051
cost	-6052
ores	-6053
rant	-6054
read	-6055
will	-6056
▁Int	-6057
▁Jer	-6058
▁neg	-6059
▁sag	-6060
ctors	-6061
frist	-6062
iking	-6063
▁expl	-6064
▁fünf	-6065
▁hous	-6066
▁step	-6067
▁talk	-6068
▁wahr	-6069
ington	-6070
reicht	-6071
▁Firma	-6072
▁Learn	-6073
▁Stahl	-6074
▁cases	-6075
▁evalu	-6076
▁route	-6077
▁solve	-6078
▁Änder	-6079
mission	-6080
▁Social	-6081
▁allgem	-6082
▁altern	-6083
▁einger	-6084
▁models	-6085
leistung	-6086
▁größten	-6087
▁meeting	-6088
▁section	-6089
▁Interess	-6090
▁starting	-6091
▁Forschung	-6092
▁Technologie	-6093
▁Universität	-6094
▁Mitarbeitern	-6095
-/	-6096
5,	-6097
TR	-6098
App	-6099
For	-6100
ICH	-6101
lar	-6102
aged	-6103
cret	-6104
fest	-6105
rüst	-6106
spir	-6107
▁Dis	-6108
▁ISO	-6109
▁dur	-6110
▁rob	-6111
abric	-6112
dings	-6113
frast	-6114
▁1000	-6115
▁Amaz	-6116
▁Blog	-6117
▁Lehr	-6118
▁Some	-6119
▁came	-6120
▁save	-6121
ellite	-6122
▁Außen	-6123
▁Guest	-6124
▁Instr	-6125
▁Reihe	-6126
▁führt	-6127
▁photo	-6128
▁sonst	-6129
▁taken	-6130
erweise	-6131
▁Erfolg	-6132
▁Global	-6133
▁Johann	-6134
▁Member	-6135
▁camera	-6136
▁expect	-6137
formance	-6138
▁Klicken	-6139
▁unseres	-6140
▁richtige	-6141
▁integrated	-6142
▁combination	-6143
▁communication	-6144
/4	-6145
66	-6146
cam	-6147
cep	-6148
für	-6149
vey	-6150
▁38	-6151
▁Ko	-6152
▁MS	-6153
▁wr	-6154
ecut	-6155
grad	-6156
▁Cat	-6157
▁Fot	-6158
▁His	-6159
▁Hos	-6160
▁Sup	-6161
asten	-6162
iency	-6163
osmet	-6164
utung	-6165
wagen	-6166
▁Balk	-6167
▁Cast	-6168
▁Make	-6169
▁Paul	-6170
▁Pers	-6171
▁Salz	-6172
▁Thom	-6173
▁cool	-6174
▁flat	-6175
▁host	-6176
icated	-6177
mitted	-6178
▁Damen	-6179
▁Graph	-6180
▁Mobil	-6181
▁Mount	-6182
▁Royal	-6183
▁Since	-6184
▁beisp	-6185
▁dynam	-6186
▁klein	-6187
▁smart	-6188
▁wenig	-6189
▁Profil	-6190
▁Reserv	-6191
▁coffee	-6192
▁domain	-6193
▁passen	-6194
▁winter	-6195
▁worden	-6196
▁Einkauf	-6197
▁Gruppen	-6198
▁profile	-6199
▁American	-6200
▁Dezember	-6201
▁gesamten	-6202
▁shipping	-6203
▁erhältlich	-6204
▁Hintergrund	-6205
▁immediately	-6206
69	-6207
CE	-6208
QL	-6209
ERS	-6210
iro	-6211
lav	-6212
▁33	-6213
▁AD	-6214
▁AT	-6215
▁Ke	-6216
▁wa	-6217
abin	-6218
with	-6219
ögen	-6220
▁Fen	-6221
▁rot	-6222
▁ult	-6223
ettbe	-6224
iegen	-6225
rolle	-6226
volle	-6227
▁Koch	-6228
▁Komm	-6229
▁Site	-6230
▁coll	-6231
▁infl	-6232
▁nice	-6233
▁wohl	-6234
suchen	-6235
▁Bezug	-6236
▁Treib	-6237
▁niedr	-6238
version	-6239
▁Inform	-6240
▁Nieder	-6241
▁demand	-6242
▁filter	-6243
▁liegen	-6244
▁source	-6245
▁Kitchen	-6246
▁Zugriff	-6247
▁answers	-6248
▁however	-6249
▁präsent	-6250
▁schwarz	-6251
▁spielen	-6252
▁welches	-6253
▁Mountain	-6254
▁außerdem	-6255
▁bekommen	-6256
lichkeiten	-6257
▁Bereichen	-6258
▁angezeigt	-6259
▁functions	-6260
▁Veranstalt	-6261
▁Development	-6262
▁gespeichert	-6263
cm	-6264
avy	-6265
des	-6266
key	-6267
kra	-6268
uzz	-6269
aves	-6270
deck	-6271
gant	-6272
grif	-6273
ikal	-6274
itik	-6275
oice	-6276
ätte	-6277
▁gab	-6278
iding	-6279
lesen	-6280
reibt	-6281
▁Card	-6282
▁Chem	-6283
▁Game	-6284
▁Safe	-6285
▁Wall	-6286
▁dish	-6287
▁face	-6288
▁film	-6289
▁wall	-6290
füllen	-6291
▁Stoff	-6292
▁exerc	-6293
▁fares	-6294
▁targe	-6295
igungen	-6296
mitteln	-6297
schafts	-6298
▁Rechte	-6299
▁Vienna	-6300
▁action	-6301
▁famous	-6302
▁gerade	-6303
▁hatten	-6304
▁member	-6305
▁obtain	-6306
▁recogn	-6307
▁Smoking	-6308
▁Twitter	-6309
▁bringen	-6310
▁message	-6311
▁variety	-6312
▁Research	-6313
▁Standort	-6314
▁activity	-6315
▁Programme	-6316
▁situation	-6317
▁properties	-6318
▁opportunity	-6319
47	-6320
63	-6321
EX	-6322
UB	-6323
UM	-6324
ya	-6325
▁AP	-6326
andy	-6327
dorf	-6328
ongs	-6329
▁Rob	-6330
▁THE	-6331
▁fix	-6332
abrik	-6333
aling	-6334
markt	-6335
räger	-6336
▁Brit	-6337
▁Good	-6338
▁Kons	-6339
▁Wahr	-6340
▁hair	-6341
▁harm	-6342
▁zeit	-6343
leicht	-6344
liance	-6345
wartet	-6346
▁Beweg	-6347
▁Insel	-6348
▁Night	-6349
▁Party	-6350
▁Waren	-6351
▁basic	-6352
▁match	-6353
▁ready	-6354
ierende	-6355
▁Toilet	-6356
▁Voraus	-6357
▁almost	-6358
▁enough	-6359
▁office	-6360
▁origin	-6361
▁sollen	-6362
▁Bahnhof	-6363
▁manuals	-6364
▁besuchen	-6365
▁capacity	-6366
▁verantwort	-6367
▁funktioniert	-6368
”.	-6369
.10	-6370
Ein	-6371
ieg	-6372
ups	-6373
ühm	-6374
▁Mö	-6375
▁SA	-6376
▁ut	-6377
mitt	-6378
sequ	-6379
tics	-6380
ützt	-6381
▁Jew	-6382
▁Prä	-6383
▁dig	-6384
▁hyd	-6385
kurse	-6386
leted	-6387
proof	-6388
ätzen	-6389
▁Foto	-6390
▁Stil	-6391
▁anim	-6392
▁caus	-6393
▁mode	-6394
▁seen	-6395
▁shop	-6396
cement	-6397
ranken	-6398
▁Basis	-6399
▁Flash	-6400
▁Touch	-6401
▁hilft	-6402
setzung	-6403
▁Health	-6404
▁Jugend	-6405
▁Munich	-6406
▁instru	-6407
▁listed	-6408
▁moment	-6409
▁verste	-6410
▁gelegen	-6411
▁heating	-6412
▁largest	-6413
▁Erhalten	-6414
▁Extremer	-6415
▁pictures	-6416
▁Edelstahl	-6417
▁architect	-6418
▁concerning	-6419
▁exhibition	-6420
gesellschaft	-6421
▁Nachrichten	-6422
▁Verfügbarkeit	-6423
▁Zusammenarbeit	-6424
Th	-6425
“.	-6426
bad	-6427
xis	-6428
▁CE	-6429
▁Ep	-6430
free	-6431
ibel	-6432
rupt	-6433
usst	-6434
▁Erk	-6435
▁Est	-6436
▁Fle	-6437
▁Inf	-6438
▁Wei	-6439
▁ill	-6440
▁rat	-6441
▁sug	-6442
erous	-6443
hotel	-6444
nungs	-6445
ookie	-6446
stall	-6447
ächst	-6448
▁Expl	-6449
▁Frei	-6450
▁chem	-6451
▁ever	-6452
ktions	-6453
▁Sound	-6454
▁cause	-6455
▁höher	-6456
ainless	-6457
mercial	-6458
▁Ersatz	-6459
▁Geräts	-6460
▁Gästen	-6461
▁Inhalt	-6462
▁Master	-6463
▁season	-6464
▁setzen	-6465
▁though	-6466
programm	-6467
▁Jetcost	-6468
▁Stellen	-6469
▁Strateg	-6470
▁beträgt	-6471
▁started	-6472
▁Airlines	-6473
▁Deutsche	-6474
▁category	-6475
▁internet	-6476
▁structure	-6477
▁Newsletter	-6478
▁Vergleichen	-6479
▁öffentlichen	-6480
7,	-6481
SS	-6482
pa	-6483
rd	-6484
bew	-6485
bnb	-6486
die	-6487
ova	-6488
ubs	-6489
zös	-6490
▁5,	-6491
▁75	-6492
▁PL	-6493
▁UK	-6494
asen	-6495
dere	-6496
mack	-6497
such	-6498
tete	-6499
▁Ost	-6500
▁Tex	-6501
▁mat	-6502
▁soc	-6503
iable	-6504
ubber	-6505
wegen	-6506
ühlen	-6507
▁Apps	-6508
▁Time	-6509
ameter	-6510
fehlen	-6511
indest	-6512
▁blood	-6513
▁mount	-6514
▁sport	-6515
fassung	-6516
▁Airbnb	-6517
▁Amazon	-6518
▁Econom	-6519
▁Männer	-6520
▁Portug	-6521
▁adjust	-6522
▁associ	-6523
▁fields	-6524
▁führen	-6525
▁proced	-6526
▁scient	-6527
▁Express	-6528
▁changes	-6529
▁leading	-6530
▁Accommod	-6531
▁maintain	-6532
▁separate	-6533
wirtschaft	-6534
entwicklung	-6535
information	-6536
▁Europäischen	-6537
▁installieren	-6538
ela	-6539
kor	-6540
▁(0	-6541
▁36	-6542
▁Ir	-6543
fält	-6544
hold	-6545
ksam	-6546
▁(2)	-6547
▁Bot	-6548
▁Ged	-6549
▁Pra	-6550
▁nam	-6551
ausch	-6552
benso	-6553
griff	-6554
haber	-6555
itude	-6556
iture	-6557
älter	-6558
▁Head	-6559
▁Near	-6560
▁Used	-6561
▁Wash	-6562
▁cart	-6563
▁heiß	-6564
▁loss	-6565
▁poly	-6566
bedien	-6567
gefügt	-6568
itting	-6569
▁Rolle	-6570
▁exact	-6571
▁paper	-6572
▁remov	-6573
▁werde	-6574
issions	-6575
pflicht	-6576
▁Tagged	-6577
▁active	-6578
▁bringt	-6579
▁expert	-6580
▁inside	-6581
▁intens	-6582
▁issues	-6583
▁taking	-6584
▁vertra	-6585
▁Further	-6586
▁Taschen	-6587
▁century	-6588
▁introdu	-6589
▁sustain	-6590
▁bedeutet	-6591
▁received	-6592
▁swimming	-6593
▁Veröffent	-6594
▁erstellen	-6595
▁essential	-6596
▁locations	-6597
▁entscheiden	-6598
▁beispielsweise	-6599
4,	-6600
88	-6601
ky	-6602
DAT	-6603
yes	-6604
▁fa	-6605
erve	-6606
rane	-6607
▁Bio	-6608
▁age	-6609
▁arm	-6610
▁six	-6611
anken	-6612
▁Mond	-6613
▁Prom	-6614
▁farm	-6615
▁frei	-6616
▁verm	-6617
orning	-6618
porate	-6619
vision	-6620
▁bewer	-6621
▁prakt	-6622
▁regel	-6623
▁Belieb	-6624
▁Buchen	-6625
▁Family	-6626
▁French	-6627
▁Histor	-6628
▁Kirche	-6629
▁Wachst	-6630
▁commit	-6631
▁teilen	-6632
herstell	-6633
▁Booking	-6634
▁Fitness	-6635
▁Komfort	-6636
▁Außerdem	-6637
▁Betriebs	-6638
▁December	-6639
▁Gebrauch	-6640
▁decision	-6641
▁friendly	-6642
▁offering	-6643
▁Tradition	-6644
▁Commission	-6645
▁interested	-6646
▁maintenance	-6647
sc	-6648
-10	-6649
ART	-6650
Fun	-6651
Vor	-6652
kel	-6653
ufe	-6654
zub	-6655
cony	-6656
ktop	-6657
rief	-6658
▁Ill	-6659
▁Mas	-6660
▁Mov	-6661
▁Pos	-6662
▁Rat	-6663
▁Wil	-6664
▁alt	-6665
▁ded	-6666
▁hor	-6667
otton	-6668
▁Hohe	-6669
▁Mail	-6670
▁Tipp	-6671
▁dete	-6672
▁fair	-6673
▁zwar	-6674
istant	-6675
ouncil	-6676
priate	-6677
uchten	-6678
öschen	-6679
▁Arten	-6680
▁Liter	-6681
▁Regen	-6682
▁Santa	-6683
▁Tages	-6684
▁happy	-6685
▁issue	-6686
▁klass	-6687
klärung	-6688
▁Direkt	-6689
▁Erwach	-6690
▁Marken	-6691
▁Series	-6692
▁Single	-6693
▁Article	-6694
▁Popular	-6695
▁Staaten	-6696
▁kontakt	-6697
▁leather	-6698
▁Fahrzeug	-6699
▁Republic	-6700
▁Vorteile	-6701
▁elements	-6702
▁erwartet	-6703
▁students	-6704
▁visitors	-6705
▁efficient	-6706
▁Electronics	-6707
▁installiert	-6708
%.	-6709
EW	-6710
wa	-6711
zz	-6712
UNG	-6713
oup	-6714
äss	-6715
▁7.	-6716
▁EC	-6717
▁MB	-6718
▁Ut	-6719
onom	-6720
pekt	-6721
üste	-6722
▁Beg	-6723
▁USD	-6724
▁Wed	-6725
▁fur	-6726
▁kil	-6727
ergeb	-6728
illen	-6729
werke	-6730
äsche	-6731
▁Chat	-6732
▁East	-6733
▁List	-6734
▁Vibr	-6735
▁erne	-6736
▁sold	-6737
▁stär	-6738
▁vert	-6739
arison	-6740
gesamt	-6741
▁Monat	-6742
▁Quick	-6743
▁Teile	-6744
▁Where	-6745
▁accur	-6746
▁carry	-6747
▁leave	-6748
▁stars	-6749
▁trade	-6750
▁wegen	-6751
▁Events	-6752
▁School	-6753
▁bleibt	-6754
▁sprach	-6755
▁Beitrag	-6756
▁Current	-6757
▁Fahrrad	-6758
▁Machine	-6759
▁Prozent	-6760
▁Verpack	-6761
▁battery	-6762
▁capital	-6763
▁effects	-6764
▁erlaubt	-6765
▁medical	-6766
▁methods	-6767
▁cheapest	-6768
▁pressure	-6769
▁marketing	-6770
▁political	-6771
ellschaften	-6772
▁Willkommen	-6773
▁kostenlose	-6774
▁Materialien	-6775
▁accessories	-6776
79	-6777
NC	-6778
On	-6779
ml	-6780
Man	-6781
een	-6782
iki	-6783
pap	-6784
uld	-6785
ura	-6786
▁TR	-6787
dete	-6788
itel	-6789
üsse	-6790
▁64-	-6791
▁AND	-6792
▁Any	-6793
▁Bur	-6794
▁KAY	-6795
▁Ker	-6796
▁Rev	-6797
▁hab	-6798
▁zwe	-6799
arter	-6800
folio	-6801
onstr	-6802
ously	-6803
▁Anti	-6804
▁Dort	-6805
▁Farb	-6806
▁Fore	-6807
▁Kurz	-6808
▁Meet	-6809
▁bike	-6810
▁role	-6811
▁scre	-6812
▁sell	-6813
▁true	-6814
bücher	-6815
nummer	-6816
tseite	-6817
▁Brand	-6818
▁Klein	-6819
▁favor	-6820
▁sagte	-6821
ertifiz	-6822
▁Church	-6823
▁Firmen	-6824
▁Gesetz	-6825
▁Heraus	-6826
▁Sterne	-6827
▁gelten	-6828
▁nichts	-6829
▁ticket	-6830
immungen	-6831
▁Federal	-6832
▁Spanien	-6833
▁element	-6834
▁opening	-6835
▁reasons	-6836
maschinen	-6837
▁Handbuch	-6838
▁agreement	-6839
▁background	-6840
▁bestimmten	-6841
▁Wirtschafts	-6842
▁erfolgreich	-6843
▁Kommunikation	-6844
▁approximately	-6845
.:	-6846
2.	-6847
26	-6848
4)	-6849
DE	-6850
De	-6851
RS	-6852
ael	-6853
wor	-6854
asts	-6855
fers	-6856
größ	-6857
lern	-6858
ruit	-6859
stud	-6860
utor	-6861
▁Pen	-6862
▁Ref	-6863
▁job	-6864
▁lik	-6865
▁sat	-6866
▁zuf	-6867
idays	-6868
otels	-6869
räume	-6870
usion	-6871
▁Dann	-6872
▁Dein	-6873
▁Each	-6874
▁Food	-6875
▁Neue	-6876
▁Reis	-6877
▁Rome	-6878
▁chat	-6879
▁rare	-6880
▁stop	-6881
adurch	-6882
führen	-6883
▁Front	-6884
▁Train	-6885
▁expla	-6886
▁final	-6887
▁guide	-6888
▁valid	-6889
▁übern	-6890
▁Pflege	-6891
▁Select	-6892
▁depart	-6893
▁thanks	-6894
▁Gebäude	-6895
▁Italian	-6896
▁Technik	-6897
▁impress	-6898
▁plastic	-6899
verfahren	-6900
▁Besucher	-6901
▁benötigt	-6902
▁erstellt	-6903
▁existing	-6904
▁günstige	-6905
▁speziell	-6906
▁Anleitung	-6907
▁Breakfast	-6908
▁Christmas	-6909
▁Maßnahmen	-6910
▁einzelnen	-6911
▁gemeinsam	-6912
▁Kunststoff	-6913
▁themselves	-6914
▁Kombination	-6915
▁durchschnitt	-6916
IB	-6917
aß	-6918
▁ö	-6919
cul	-6920
▁1:	-6921
▁5.	-6922
,...	-6923
ikon	-6924
raub	-6925
ulin	-6926
▁Fäh	-6927
▁Hum	-6928
▁Mex	-6929
▁Mio	-6930
▁Que	-6931
▁Sin	-6932
▁Vir	-6933
▁avo	-6934
▁sup	-6935
arent	-6936
arily	-6937
craft	-6938
drück	-6939
gegen	-6940
halts	-6941
igure	-6942
iling	-6943
▁File	-6944
▁Fort	-6945
▁Road	-6946
▁Ukra	-6947
▁cell	-6948
▁paar	-6949
aktion	-6950
eldorf	-6951
kennen	-6952
lebnis	-6953
lients	-6954
nissen	-6955
othing	-6956
▁Gespr	-6957
▁KAYAK	-6958
▁Parte	-6959
▁Print	-6960
▁River	-6961
▁break	-6962
▁Applic	-6963
▁Balkon	-6964
▁Choose	-6965
▁Option	-6966
▁advert	-6967
▁kennen	-6968
▁vorher	-6969
tzentrum	-6970
▁Deliver	-6971
▁Februar	-6972
▁compare	-6973
▁perfekt	-6974
▁überprü	-6975
zeichnung	-6976
▁constant	-6977
▁contains	-6978
▁cultural	-6979
▁erreicht	-6980
▁komplett	-6981
▁vehicles	-6982
management	-6983
▁Produkten	-6984
▁potential	-6985
▁industrial	-6986
▁mindestens	-6987
▁photograph	-6988
▁zusätzliche	-6989
3)	-6990
TER	-6991
kan	-6992
rot	-6993
fung	-6994
ista	-6995
▁600	-6996
▁HTC	-6997
▁Ski	-6998
▁pdf	-6999
▁sel	-7000
ammer	-7001
atung	-7002
gleit	-7003
▁Anal	-7004
▁Bede	-7005
▁Page	-7006
▁eins	-7007
▁fert	-7008
▁menu	-7009
▁went	-7010
enkorb	-7011
ennung	-7012
fragen	-7013
wählen	-7014
▁Geist	-7015
▁Guide	-7016
▁Optim	-7017
▁Volks	-7018
▁Wider	-7019
▁fresh	-7020
▁hands	-7021
▁sorgt	-7022
klusive	-7023
unehmen	-7024
▁Review	-7025
▁Straße	-7026
▁bestät	-7027
▁großer	-7028
ferences	-7029
urniture	-7030
▁Chinese	-7031
▁Modelle	-7032
▁Quality	-7033
▁climate	-7034
▁towards	-7035
industrie	-7036
▁external	-7037
▁nachhalt	-7038
▁official	-7039
▁Fingering	-7040
▁Internets	-7041
▁Leistungs	-7042
▁effective	-7043
▁resources	-7044
▁standards	-7045
▁zuverläss	-7046
▁Kommentare	-7047
▁successful	-7048
▁Herstellung	-7049
▁Kühlschrank	-7050
▁Produktions	-7051
▁particularly	-7052
1.	-7053
EB	-7054
VO	-7055
how	-7056
irk	-7057
nes	-7058
uhl	-7059
▁44	-7060
▁FA	-7061
▁Ly	-7062
▁SC	-7063
▁ur	-7064
Shop	-7065
bour	-7066
ickt	-7067
onse	-7068
▁180	-7069
▁Adv	-7070
▁Bos	-7071
▁Bul	-7072
▁Erd	-7073
▁Mix	-7074
▁Ter	-7075
▁gle	-7076
endet	-7077
ilden	-7078
organ	-7079
ounge	-7080
rical	-7081
tzeit	-7082
▁Gest	-7083
▁Gree	-7084
▁blue	-7085
▁disp	-7086
▁hast	-7087
▁hour	-7088
▁seem	-7089
▁soft	-7090
bersch	-7091
friend	-7092
ounter	-7093
ournal	-7094
testen	-7095
undred	-7096
▁Categ	-7097
▁Forum	-7098
▁Glass	-7099
▁Photo	-7100
▁Rechn	-7101
▁Schön	-7102
▁Sprit	-7103
▁Under	-7104
▁Watch	-7105
▁leben	-7106
geführt	-7107
gesetzt	-7108
gestell	-7109
ächlich	-7110
▁Gottes	-7111
▁Silber	-7112
▁diffic	-7113
▁dürfen	-7114
▁halten	-7115
▁nearby	-7116
▁window	-7117
material	-7118
▁Central	-7119
▁Edition	-7120
▁article	-7121
▁changed	-7122
▁corresp	-7123
▁erreich	-7124
chnologie	-7125
▁Anbieter	-7126
▁Transfer	-7127
▁Zahlungs	-7128
▁cleaning	-7129
▁database	-7130
▁deutlich	-7131
▁expected	-7132
▁früheren	-7133
▁wichtige	-7134
▁Condition	-7135
▁Qualitäts	-7136
▁Warenkorb	-7137
▁gebraucht	-7138
▁Mitglieder	-7139
▁Teilnehmer	-7140
▁availability	-7141
Pr	-7142
emp	-7143
▁XP	-7144
ibil	-7145
iced	-7146
ielt	-7147
lust	-7148
nern	-7149
ocol	-7150
site	-7151
ulpt	-7152
uted	-7153
▁Fac	-7154
▁Lim	-7155
▁PRO	-7156
▁los	-7157
Produ	-7158
hagen	-7159
illas	-7160
istik	-7161
known	-7162
nacht	-7163
overs	-7164
▁Farm	-7165
▁Gene	-7166
▁Life	-7167
▁Wort	-7168
▁bist	-7169
▁woll	-7170
gruppe	-7171
ädchen	-7172
▁Child	-7173
▁Route	-7174
▁drink	-7175
▁renov	-7176
glichen	-7177
isierte	-7178
pendent	-7179
quality	-7180
▁Gleich	-7181
▁Import	-7182
▁Sprach	-7183
▁Stelle	-7184
▁rating	-7185
▁tempor	-7186
▁weight	-7187
undersch	-7188
▁Account	-7189
▁Analyse	-7190
▁Eingang	-7191
▁concept	-7192
▁komplet	-7193
▁running	-7194
▁Arbeiten	-7195
▁Notebook	-7196
▁Produkts	-7197
▁Speicher	-7198
▁gewährle	-7199
▁programm	-7200
▁Community	-7201
▁Verfahren	-7202
▁regarding	-7203
▁persönlichen	-7204
29	-7205
43	-7206
kr	-7207
▁AR	-7208
▁LG	-7209
acks	-7210
cean	-7211
head	-7212
iang	-7213
rors	-7214
weiß	-7215
üler	-7216
▁Bis	-7217
▁Dev	-7218
▁Ord	-7219
▁bek	-7220
▁got	-7221
▁mer	-7222
▁prä	-7223
▁rom	-7224
antie	-7225
aptop	-7226
itary	-7227
where	-7228
ölker	-7229
▁Gren	-7230
▁Help	-7231
▁Menu	-7232
▁Präs	-7233
▁Town	-7234
▁band	-7235
▁bank	-7236
▁cast	-7237
▁door	-7238
Sterne	-7239
action	-7240
atoren	-7241
messer	-7242
screen	-7243
▁David	-7244
▁Ident	-7245
▁Kolle	-7246
▁Quest	-7247
▁Strap	-7248
▁Titel	-7249
▁owner	-7250
▁peace	-7251
▁princ	-7252
▁quite	-7253
▁rates	-7254
▁therm	-7255
▁villa	-7256
oftware	-7257
▁Public	-7258
▁berühm	-7259
▁coming	-7260
▁needed	-7261
▁schwer	-7262
▁streng	-7263
▁toilet	-7264
▁wonder	-7265
ociation	-7266
▁Adresse	-7267
▁America	-7268
▁Archite	-7269
▁consent	-7270
▁Comments	-7271
▁bestimmt	-7272
▁modernen	-7273
▁Bedeutung	-7274
▁automatic	-7275
▁community	-7276
▁difficult	-7277
▁establish	-7278
▁presented	-7279
▁Wohnzimmer	-7280
▁Accessories	-7281
▁Eigenschaften	-7282
Ab	-7283
FT	-7284
PA	-7285
hi	-7286
cen	-7287
cts	-7288
ieß	-7289
ovo	-7290
▁4,	-7291
▁RC	-7292
▁Ty	-7293
gred	-7294
idet	-7295
ught	-7296
unge	-7297
wart	-7298
älle	-7299
▁Jac	-7300
▁Köl	-7301
▁cas	-7302
▁gas	-7303
▁kur	-7304
hoben	-7305
itors	-7306
▁Body	-7307
▁HERR	-7308
▁Miss	-7309
▁Wart	-7310
▁engl	-7311
▁info	-7312
▁king	-7313
▁path	-7314
▁sagt	-7315
▁says	-7316
anging	-7317
▁Champ	-7318
▁glaub	-7319
▁ideas	-7320
▁sagen	-7321
▁words	-7322
▁Energy	-7323
▁Martin	-7324
▁aktual	-7325
▁fabric	-7326
▁Auftrag	-7327
▁Immobil	-7328
▁Welcome	-7329
▁Freunden	-7330
▁geöffnet	-7331
▁machines	-7332
▁mehreren	-7333
▁produced	-7334
▁websites	-7335
▁President	-7336
▁entdecken	-7337
▁providing	-7338
▁published	-7339
▁Stadtzentrum	-7340
▁distribution	-7341
,”	-7342
HL	-7343
öp	-7344
ekt	-7345
gro	-7346
▁55	-7347
▁Mc	-7348
▁SS	-7349
▁ke	-7350
edom	-7351
irls	-7352
oles	-7353
rome	-7354
serv	-7355
tein	-7356
äfen	-7357
▁(3)	-7358
▁1.0	-7359
▁250	-7360
▁Bür	-7361
▁Fly	-7362
▁Kol	-7363
▁Tos	-7364
▁VIP	-7365
▁Vit	-7366
▁Zür	-7367
▁div	-7368
▁fal	-7369
▁har	-7370
▁zun	-7371
Hotel	-7372
gende	-7373
ombin	-7374
ändig	-7375
▁Bach	-7376
▁Kenn	-7377
▁Long	-7378
▁Week	-7379
▁Wild	-7380
▁bein	-7381
▁dise	-7382
▁held	-7383
▁rele	-7384
▁snow	-7385
Design	-7386
ibrary	-7387
intage	-7388
karten	-7389
kunfts	-7390
zieren	-7391
▁About	-7392
▁Block	-7393
▁Distr	-7394
▁Great	-7395
▁Marke	-7396
▁Model	-7397
▁beein	-7398
▁dress	-7399
▁graph	-7400
▁metal	-7401
▁posit	-7402
▁somit	-7403
istungs	-7404
▁Wörter	-7405
▁assign	-7406
▁church	-7407
▁meiner	-7408
▁status	-7409
▁update	-7410
▁Profess	-7411
▁derzeit	-7412
▁evening	-7413
▁setting	-7414
▁Ergebnis	-7415
▁Struktur	-7416
▁Vacation	-7417
▁bedrooms	-7418
▁flexible	-7419
▁shopping	-7420
▁unabhäng	-7421
▁guarantee	-7422
▁speichern	-7423
▁appropriate	-7424
▁entsprechenden	-7425
38	-7426
73	-7427
afé	-7428
azz	-7429
urm	-7430
wel	-7431
öss	-7432
▁(8	-7433
▁01	-7434
ades	-7435
ibar	-7436
ibli	-7437
icip	-7438
lymp	-7439
spre	-7440
ängt	-7441
▁Alp	-7442
▁Anw	-7443
▁Dra	-7444
▁Old	-7445
▁Tom	-7446
▁dau	-7447
▁dep	-7448
▁hör	-7449
asant	-7450
grade	-7451
kannt	-7452
uttle	-7453
äufer	-7454
▁Gran	-7455
▁rail	-7456
▁ster	-7457
▁ways	-7458
artner	-7459
hinder	-7460
▁Attra	-7461
▁Peter	-7462
▁Weihn	-7463
▁lines	-7464
▁recht	-7465
▁wobei	-7466
Service	-7467
chtzeit	-7468
jection	-7469
ssystem	-7470
▁Anfang	-7471
▁Blumen	-7472
▁Freund	-7473
▁Sports	-7474
▁Teilen	-7475
▁Zurück	-7476
▁freund	-7477
▁kombin	-7478
▁levels	-7479
▁meinem	-7480
▁meters	-7481
▁sector	-7482
▁videos	-7483
▁visual	-7484
achricht	-7485
qualität	-7486
▁Council	-7487
▁Darüber	-7488
▁Process	-7489
▁Straßen	-7490
▁arrival	-7491
▁hundred	-7492
▁limited	-7493
▁prevent	-7494
▁Security	-7495
▁Treibers	-7496
▁airlines	-7497
▁besonder	-7498
▁gebrauch	-7499
▁perfekte	-7500
▁Verbesser	-7501
▁worldwide	-7502
▁Wirtschaft	-7503
▁vergleichen	-7504
▁ausschließlich	-7505
9)	-7506
Cl	-7507
HD	-7508
LA	-7509
ny	-7510
wh	-7511
hes	-7512
ibe	-7513
obe	-7514
ürf	-7515
▁Fü	-7516
▁Ja	-7517
▁Rä	-7518
▁ml	-7519
ener	-7520
hung	-7521
irth	-7522
zähl	-7523
▁Ann	-7524
▁Aqu	-7525
▁Arg	-7526
▁BMW	-7527
▁CHF	-7528
▁Dol	-7529
▁Two	-7530
▁def	-7531
▁imm	-7532
▁mel	-7533
▁syn	-7534
▁usw	-7535
anned	-7536
aving	-7537
faces	-7538
iefer	-7539
imens	-7540
izeit	-7541
izien	-7542
orary	-7543
▁2005	-7544
▁Appl	-7545
▁Bern	-7546
▁Disk	-7547
▁Hung	-7548
▁Sehr	-7549
▁Sohn	-7550
▁Spec	-7551
▁Tier	-7552
▁Type	-7553
▁deep	-7554
▁fant	-7555
▁glob	-7556
▁move	-7557
▁prim	-7558
▁zehn	-7559
ensive	-7560
orgung	-7561
zahlen	-7562
▁Bonus	-7563
▁Damit	-7564
▁Micro	-7565
▁Schle	-7566
▁award	-7567
▁condu	-7568
▁indic	-7569
▁instr	-7570
▁neigh	-7571
▁satis	-7572
▁trotz	-7573
▁whose	-7574
arische	-7575
ecutive	-7576
▁Andere	-7577
▁Format	-7578
▁Madrid	-7579
▁Status	-7580
▁Thomas	-7581
▁Wander	-7582
▁museum	-7583
--------	-7584
▁Kindern	-7585
▁Project	-7586
▁consist	-7587
▁handelt	-7588
▁written	-7589
▁Schritte	-7590
▁Vertrieb	-7591
▁detailed	-7592
▁positive	-7593
▁progress	-7594
schließend	-7595
▁Dokumente	-7596
▁increased	-7597
▁convenient	-7598
▁entwickeln	-7599
▁government	-7600
▁kontaktieren	-7601
▁funktionieren	-7602
▁verantwortlich	-7603
▁veröffentlicht	-7604
36	-7605
II	-7606
ORD	-7607
Tra	-7608
eff	-7609
ila	-7610
inu	-7611
zig	-7612
▁--	-7613
▁65	-7614
▁PR	-7615
▁SM	-7616
aste	-7617
down	-7618
elte	-7619
gers	-7620
page	-7621
äuse	-7622
▁Tel	-7623
▁inf	-7624
▁kam	-7625
▁lic	-7626
▁lif	-7627
▁pal	-7628
▁pet	-7629
barer	-7630
cause	-7631
gment	-7632
rency	-7633
schlä	-7634
stead	-7635
▁Bett	-7636
▁Care	-7637
▁Cert	-7638
▁Even	-7639
▁dark	-7640
▁fine	-7641
▁jack	-7642
▁unto	-7643
formen	-7644
geräte	-7645
iertes	-7646
legung	-7647
leucht	-7648
▁Costa	-7649
▁Finde	-7650
▁sleep	-7651
▁wider	-7652
ologien	-7653
onenten	-7654
▁Förder	-7655
▁Gesamt	-7656
▁Januar	-7657
▁Palace	-7658
▁elektr	-7659
▁impact	-7660
▁seines	-7661
▁zweite	-7662
itiative	-7663
▁Angaben	-7664
▁January	-7665
▁Studien	-7666
▁vehicle	-7667
avigation	-7668
▁Industry	-7669
▁Training	-7670
▁Wellness	-7671
▁gleichen	-7672
▁situated	-7673
▁Anschluss	-7674
▁angegeben	-7675
▁beginning	-7676
▁wundersch	-7677
▁technischen	-7678
▁Zusammenhang	-7679
/0	-7680
74	-7681
Fe	-7682
bi	-7683
hy	-7684
sb	-7685
ORT	-7686
OST	-7687
fit	-7688
haf	-7689
log	-7690
uri	-7691
▁Hü	-7692
ador	-7693
enty	-7694
ücke	-7695
▁Ang	-7696
▁Bag	-7697
▁Fel	-7698
▁Lou	-7699
▁Sle	-7700
▁Tal	-7701
▁Tät	-7702
▁bag	-7703
Press	-7704
itial	-7705
izenz	-7706
lager	-7707
onnen	-7708
otion	-7709
ports	-7710
posit	-7711
rooms	-7712
ällen	-7713
▁Alex	-7714
▁Cart	-7715
▁laun	-7716
▁verd	-7717
forsch	-7718
nungen	-7719
weiter	-7720
▁Baumw	-7721
▁Dauer	-7722
▁Firef	-7723
▁Glück	-7724
▁Leder	-7725
▁Maxim	-7726
▁Punkt	-7727
▁asked	-7728
▁zudem	-7729
meldung	-7730
verkehr	-7731
▁Academ	-7732
▁Kamera	-7733
▁Kredit	-7734
▁Number	-7735
▁Transp	-7736
▁Zürich	-7737
▁behind	-7738
▁deiner	-7739
▁expand	-7740
▁häufig	-7741
▁island	-7742
▁lernen	-7743
▁output	-7744
lösungen	-7745
▁Inhalts	-7746
▁correct	-7747
▁gesamte	-7748
▁organiz	-7749
▁persons	-7750
▁updates	-7751
fähigkeit	-7752
▁demonstr	-7753
▁supplier	-7754
ifications	-7755
▁Therefore	-7756
▁administr	-7757
▁empfehlen	-7758
▁exclusive	-7759
▁richtigen	-7760
▁Protection	-7761
▁bezeichnet	-7762
▁categories	-7763
▁eingesetzt	-7764
▁Organisation	-7765
▁conditioning	-7766
-8	-7767
7)	-7768
93	-7769
KL	-7770
LC	-7771
LS	-7772
cs	-7773
da	-7774
Mit	-7775
bst	-7776
hou	-7777
▁AU	-7778
▁ep	-7779
akte	-7780
amic	-7781
aven	-7782
iano	-7783
iest	-7784
itzt	-7785
lade	-7786
otes	-7787
spro	-7788
uchs	-7789
wise	-7790
year	-7791
▁Let	-7792
▁Why	-7793
ATION	-7794
erman	-7795
iveau	-7796
letzt	-7797
place	-7798
rowse	-7799
uerto	-7800
▁Blut	-7801
▁Fert	-7802
▁Plug	-7803
▁Prot	-7804
▁darf	-7805
▁herr	-7806
schule	-7807
▁Dinge	-7808
▁Event	-7809
▁Orgas	-7810
▁alten	-7811
▁angen	-7812
▁cycle	-7813
▁input	-7814
▁oblig	-7815
▁setzt	-7816
▁spect	-7817
▁verme	-7818
igkeits	-7819
rüstung	-7820
service	-7821
▁Modern	-7822
▁Rental	-7823
▁became	-7824
▁ebenso	-7825
▁erziel	-7826
▁happen	-7827
▁medium	-7828
▁plants	-7829
▁symbol	-7830
▁tragen	-7831
▁wesent	-7832
▁Kranken	-7833
▁Michael	-7834
▁eigenes	-7835
▁erfasst	-7836
▁moderne	-7837
▁objects	-7838
▁outdoor	-7839
▁testing	-7840
▁Delivery	-7841
▁Wireless	-7842
▁actually	-7843
▁Directory	-7844
▁Schlüssel	-7845
▁bezüglich	-7846
▁furniture	-7847
▁passenden	-7848
▁programme	-7849
▁Gehminuten	-7850
▁understand	-7851
▁verbessern	-7852
▁Performance	-7853
▁technologies	-7854
7.	-7855
OB	-7856
OK	-7857
UV	-7858
dy	-7859
no	-7860
Kon	-7861
dex	-7862
eds	-7863
ele	-7864
zwe	-7865
öll	-7866
▁FR	-7867
▁RE	-7868
▁Ru	-7869
▁af	-7870
cket	-7871
ello	-7872
hood	-7873
inia	-7874
ryer	-7875
▁Cla	-7876
▁Kor	-7877
▁LAN	-7878
▁Spr	-7879
▁Upd	-7880
▁bit	-7881
▁dog	-7882
gründ	-7883
heits	-7884
iders	-7885
ilien	-7886
kreis	-7887
lated	-7888
seite	-7889
zeige	-7890
▁Aust	-7891
▁Canc	-7892
▁Menü	-7893
▁bege	-7894
▁emer	-7895
▁firm	-7896
▁hilf	-7897
▁ther	-7898
▁writ	-7899
▁wäre	-7900
amples	-7901
platte	-7902
▁Fahrt	-7903
▁Reich	-7904
▁behav	-7905
▁entry	-7906
▁sechs	-7907
▁weeks	-7908
gegeben	-7909
▁Atlant	-7910
▁Bezieh	-7911
▁Herren	-7912
▁Kaffee	-7913
▁Küchen	-7914
▁Prices	-7915
▁bottom	-7916
▁deinem	-7917
▁gesetz	-7918
▁spring	-7919
▁verein	-7920
▁Gelegen	-7921
▁Medizin	-7922
▁Outdoor	-7923
▁Preisen	-7924
▁Wechsel	-7925
▁classic	-7926
▁clients	-7927
▁picture	-7928
▁science	-7929
▁welcome	-7930
▁zweiten	-7931
▁February	-7932
▁Pflanzen	-7933
▁Richtung	-7934
▁Vibrator	-7935
▁Werkzeug	-7936
▁beginnen	-7937
▁messages	-7938
▁Australia	-7939
▁attention	-7940
▁deutschen	-7941
▁accessible	-7942
▁considered	-7943
▁Ausstattung	-7944
▁Jahrhundert	-7945
▁cooperation	-7946
▁description	-7947
▁established	-7948
informationen	-7949
")	-7950
-4	-7951
94	-7952
bu	-7953
mo	-7954
üm	-7955
.12	-7956
OSS	-7957
ida	-7958
▁95	-7959
▁EP	-7960
▁SD	-7961
▁SH	-7962
▁hy	-7963
▁kW	-7964
Euro	-7965
cast	-7966
ebox	-7967
rein	-7968
▁700	-7969
▁Bab	-7970
▁CON	-7971
▁Sea	-7972
boden	-7973
gener	-7974
immel	-7975
▁Dach	-7976
▁Empf	-7977
▁Erde	-7978
▁Kann	-7979
▁Mand	-7980
▁Next	-7981
▁Rout	-7982
▁Send	-7983
▁Stay	-7984
▁gift	-7985
actory	-7986
annung	-7987
ifying	-7988
olding	-7989
straße	-7990
▁Andre	-7991
▁Beaut	-7992
▁Hause	-7993
▁Large	-7994
▁Laser	-7995
▁Lesen	-7996
▁Multi	-7997
▁Prakt	-7998
▁Today	-7999
▁Wasch	-8000
▁earth	-8001
▁units	-8002
▁Player	-8003
▁Thanks	-8004
▁reduce	-8005
▁remove	-8006
▁silver	-8007
▁volume	-8008
▁wenige	-8009
isierten	-8010
produkte	-8011
▁Because	-8012
▁authent	-8013
▁consult	-8014
▁culture	-8015
▁fliegen	-8016
▁genutzt	-8017
▁getting	-8018
▁jeweils	-8019
temporary	-8020
vergleich	-8021
üsseldorf	-8022
▁Geschenk	-8023
▁Maschine	-8024
▁Orgasmus	-8025
▁Vertrags	-8026
▁benefits	-8027
▁einfache	-8028
▁multiple	-8029
▁Analytics	-8030
▁Interesse	-8031
▁collected	-8032
▁Entfernung	-8033
▁efficiency	-8034
▁wissenschaft	-8035
gesellschaften	-8036
RL	-8037
eo	-8038
arr	-8039
iat	-8040
lit	-8041
ota	-8042
rec	-8043
▁CA	-8044
▁Po	-8045
▁ol	-8046
▁ve	-8047
inos	-8048
oven	-8049
tons	-8050
▁1.1	-8051
▁Big	-8052
▁Gef	-8053
▁Gig	-8054
▁SAP	-8055
▁Sky	-8056
▁enh	-8057
▁fan	-8058
▁ful	-8059
▁hom	-8060
▁won	-8061
Karte	-8062
comes	-8063
itale	-8064
osoph	-8065
▁Down	-8066
▁Jose	-8067
▁Konz	-8068
▁Quad	-8069
▁Spaß	-8070
▁Wood	-8071
▁exam	-8072
▁join	-8073
▁prob	-8074
▁viol	-8075
friger	-8076
klusiv	-8077
ourcen	-8078
reland	-8079
yright	-8080
▁Dabei	-8081
▁Dress	-8082
▁Günst	-8083
▁Herrn	-8084
▁Krieg	-8085
▁Small	-8086
▁Terms	-8087
▁Zweck	-8088
▁cards	-8089
▁charm	-8090
▁helps	-8091
▁lösen	-8092
▁offiz	-8093
▁thous	-8094
▁width	-8095
ossible	-8096
standen	-8097
▁Einsch	-8098
▁Puerto	-8099
▁Report	-8100
▁Rezept	-8101
▁Risiko	-8102
▁Umsatz	-8103
▁chance	-8104
▁freuen	-8105
▁sauber	-8106
▁square	-8107
▁Anlagen	-8108
▁Dienste	-8109
▁Fenster	-8110
▁advance	-8111
▁morning	-8112
▁numbers	-8113
▁reached	-8114
▁schönen	-8115
▁Freizeit	-8116
▁Hinweise	-8117
▁Sprachen	-8118
▁darunter	-8119
▁physical	-8120
▁Grundlage	-8121
▁Situation	-8122
▁ausgewähl	-8123
▁education	-8124
▁einfachen	-8125
▁entfernen	-8126
▁verlinken	-8127
▁Überblick	-8128
▁Behandlung	-8129
▁electronic	-8130
▁garantiert	-8131
▁technische	-8132
▁Einrichtungen	-8133
▁Einstellungen	-8134
/5	-8135
31	-8136
DI	-8137
Sc	-8138
ado	-8139
cia	-8140
dll	-8141
rum	-8142
▁6.	-8143
▁KG	-8144
▁Lu	-8145
▁Mr	-8146
▁Vo	-8147
ague	-8148
gree	-8149
iums	-8150
olic	-8151
rows	-8152
tage	-8153
▁10-	-8154
▁Aff	-8155
▁Ast	-8156
▁Its	-8157
▁LCD	-8158
▁Nam	-8159
▁Tim	-8160
▁Wär	-8161
▁fee	-8162
▁gek	-8163
▁sal	-8164
▁spa	-8165
achts	-8166
iforn	-8167
igtes	-8168
isher	-8169
oring	-8170
seher	-8171
werte	-8172
▁Asia	-8173
▁Büro	-8174
▁Flat	-8175
▁Graf	-8176
▁Laut	-8177
▁Mode	-8178
▁Prag	-8179
▁Yoga	-8180
▁beds	-8181
▁gese	-8182
▁iron	-8183
▁rain	-8184
hänger	-8185
rehens	-8186
▁Essen	-8187
▁Fried	-8188
▁Glaub	-8189
▁Heute	-8190
▁Laden	-8191
▁Meine	-8192
▁Menge	-8193
▁Serie	-8194
▁Steel	-8195
▁celeb	-8196
▁death	-8197
▁force	-8198
▁piece	-8199
▁psych	-8200
▁repla	-8201
▁stage	-8202
▁worth	-8203
▁überw	-8204
erseits	-8205
ichtung	-8206
ificate	-8207
sprache	-8208
▁Silver	-8209
▁Spring	-8210
▁Wettbe	-8211
▁notice	-8212
▁prepar	-8213
▁senden	-8214
▁solche	-8215
ibilität	-8216
▁Located	-8217
▁Privacy	-8218
▁Schnell	-8219
▁Tickets	-8220
▁Western	-8221
▁Whether	-8222
▁Zeichen	-8223
▁carried	-8224
▁greater	-8225
▁medizin	-8226
▁percent	-8227
▁Electric	-8228
▁Nutzungs	-8229
▁advanced	-8230
▁powerful	-8231
▁privaten	-8232
arbeitungs	-8233
▁Abschluss	-8234
▁Christian	-8235
▁Kilometer	-8236
▁Kategorien	-8237
▁jeweiligen	-8238
▁revolution	-8239
▁Engineering	-8240
▁Lieferanten	-8241
▁instructions	-8242
62	-8243
9.	-8244
BER	-8245
Mar	-8246
aub	-8247
bul	-8248
dre	-8249
ehm	-8250
jen	-8251
ket	-8252
new	-8253
olz	-8254
rap	-8255
utr	-8256
▁EX	-8257
comp	-8258
gypt	-8259
kont	-8260
look	-8261
odge	-8262
rols	-8263
term	-8264
ying	-8265
üche	-8266
üfen	-8267
▁19.	-8268
▁190	-8269
▁Job	-8270
▁Kop	-8271
▁MEN	-8272
▁Pil	-8273
▁Ren	-8274
dauer	-8275
emand	-8276
grenz	-8277
iquid	-8278
otive	-8279
overy	-8280
sprün	-8281
urban	-8282
▁2003	-8283
▁Area	-8284
▁Asus	-8285
▁Dest	-8286
▁Feed	-8287
▁Hans	-8288
▁Köln	-8289
▁Rund	-8290
▁Volk	-8291
▁Währ	-8292
▁cars	-8293
▁erhe	-8294
▁frag	-8295
▁isol	-8296
▁roll	-8297
▁word	-8298
häuser	-8299
iellen	-8300
though	-8301
▁Alter	-8302
▁Email	-8303
▁Galax	-8304
▁Konto	-8305
▁Olymp	-8306
▁agree	-8307
▁micro	-8308
▁panel	-8309
▁solid	-8310
▁tasks	-8311
aturing	-8312
rockner	-8313
venture	-8314
▁Fabrik	-8315
▁Gegend	-8316
▁Landes	-8317
▁Sozial	-8318
▁accomp	-8319
▁compat	-8320
▁height	-8321
▁mainly	-8322
▁master	-8323
▁resort	-8324
▁romant	-8325
▁signal	-8326
zeichnis	-8327
▁Content	-8328
▁Element	-8329
▁Mädchen	-8330
▁Spanish	-8331
▁Strecke	-8332
▁Ukraine	-8333
▁achieve	-8334
▁beginnt	-8335
▁benefit	-8336
▁driving	-8337
▁exactly	-8338
▁komfort	-8339
▁players	-8340
▁umfasst	-8341
bewertung	-8342
▁Aufgaben	-8343
▁compared	-8344
▁elektron	-8345
▁gewünsch	-8346
▁supports	-8347
▁Datenbank	-8348
▁advantage	-8349
▁außerhalb	-8350
▁Düsseldorf	-8351
▁Kommission	-8352
▁commercial	-8353
▁hinzugefügt	-8354
▁europäischen	-8355
▁historischen	-8356
▁angeschlossen	-8357
8,	-8358
GO	-8359
KW	-8360
SC	-8361
UC	-8362
▁,	-8363
001	-8364
bum	-8365
rak	-8366
vol	-8367
▁34	-8368
▁6,	-8369
▁IV	-8370
▁Sä	-8371
Pack	-8372
Play	-8373
anne	-8374
aria	-8375
heiz	-8376
hiba	-8377
holm	-8378
usal	-8379
wohl	-8380
äden	-8381
▁2.0	-8382
▁Dir	-8383
▁Ere	-8384
▁Fav	-8385
▁Juk	-8386
▁Pie	-8387
▁Van	-8388
▁Via	-8389
▁Wün	-8390
▁eye	-8391
▁ten	-8392
▁Ähn	-8393
allel	-8394
andid	-8395
aries	-8396
icker	-8397
inery	-8398
ipper	-8399
istet	-8400
izont	-8401
ooden	-8402
ranty	-8403
▁Abst	-8404
▁Dell	-8405
▁Java	-8406
▁Verk	-8407
▁Verm	-8408
▁hosp	-8409
▁wert	-8410
▁zuge	-8411
acious	-8412
iertel	-8413
inding	-8414
ochter	-8415
▁Beruf	-8416
▁Cable	-8417
▁Falun	-8418
▁Feuer	-8419
▁Labor	-8420
▁Vater	-8421
▁cells	-8422
▁zentr	-8423
rechend	-8424
▁Batter	-8425
▁Flight	-8426
▁Heidel	-8427
▁inspir	-8428
▁mother	-8429
▁placed	-8430
▁rather	-8431
▁umfang	-8432
▁Elektro	-8433
▁Ireland	-8434
▁Monitor	-8435
▁founded	-8436
▁freedom	-8437
▁village	-8438
aillierte	-8439
▁Location	-8440
▁erfüllen	-8441
▁overview	-8442
▁regional	-8443
▁Lieferung	-8444
▁Solutions	-8445
▁Suppliers	-8446
▁Tourismus	-8447
▁Verhalten	-8448
▁described	-8449
▁interface	-8450
▁spezielle	-8451
▁Bestellung	-8452
▁Lieferzeit	-8453
▁gebrauchte	-8454
▁interesting	-8455
▁relationship	-8456
▁ausgezeichnet	-8457
AV	-8458
MB	-8459
sw	-8460
ani	-8461
bro	-8462
bus	-8463
ded	-8464
irr	-8465
kok	-8466
nam	-8467
▁42	-8468
▁Jo	-8469
▁UP	-8470
▁Wa	-8471
▁Wo	-8472
-201	-8473
aled	-8474
hips	-8475
osis	-8476
shop	-8477
äche	-8478
ällt	-8479
ügel	-8480
ühle	-8481
▁1.5	-8482
▁Lat	-8483
▁erg	-8484
Spiel	-8485
aters	-8486
idden	-8487
igste	-8488
ildet	-8489
kraft	-8490
ätten	-8491
▁2004	-8492
▁Cock	-8493
▁Haar	-8494
▁Pict	-8495
▁Ress	-8496
▁Save	-8497
▁Sche	-8498
▁Size	-8499
▁Step	-8500
▁Zoll	-8501
▁ones	-8502
▁opin	-8503
▁sand	-8504
▁tips	-8505
achsen	-8506
gewöhn	-8507
schlag	-8508
uisine	-8509
völker	-8510
zenten	-8511
▁Clean	-8512
▁Pages	-8513
▁Panor	-8514
▁Speed	-8515
▁Valle	-8516
▁Warum	-8517
▁While	-8518
▁neuer	-8519
▁rules	-8520
ammlung	-8521
enhagen	-8522
griffen	-8523
irdryer	-8524
▁Follow	-8525
▁Länder	-8526
▁Peters	-8527
▁except	-8528
▁orders	-8529
▁schöne	-8530
▁spirit	-8531
▁wunder	-8532
etzungen	-8533
istische	-8534
ließlich	-8535
minister	-8536
▁Buchung	-8537
▁Jukebox	-8538
▁Schmuck	-8539
▁Spielen	-8540
▁artists	-8541
▁deshalb	-8542
▁elegant	-8543
▁erfüllt	-8544
▁kilomet	-8545
▁studies	-8546
bedienung	-8547
▁Johannes	-8548
▁brauchen	-8549
▁communic	-8550
▁concentr	-8551
▁referred	-8552
▁Konferenz	-8553
▁Plattform	-8554
▁Schweizer	-8555
▁interests	-8556
▁conference	-8557
▁übertragen	-8558
▁attractions	-8559
▁independent	-8560
▁recommended	-8561
▁Verbindungen	-8562
▁durchgeführt	-8563
▁participants	-8564
▁Verantwortung	-8565
▁responsibility	-8566
PN	-8567
jo	-8568
Min	-8569
Wir	-8570
ask	-8571
asp	-8572
hlt	-8573
ipl	-8574
law	-8575
was	-8576
▁ja	-8577
cont	-8578
iant	-8579
igem	-8580
oker	-8581
rier	-8582
uern	-8583
▁Agr	-8584
▁Exc	-8585
▁Mig	-8586
▁Mir	-8587
▁Tok	-8588
▁saw	-8589
halte	-8590
quenz	-8591
riebe	-8592
teten	-8593
uffer	-8594
▁Haup	-8595
▁Know	-8596
▁Many	-8597
▁Rich	-8598
▁Sofa	-8599
▁Soll	-8600
▁Tags	-8601
▁Wolf	-8602
▁apps	-8603
▁hire	-8604
▁pick	-8605
▁plus	-8606
▁rock	-8607
▁zust	-8608
bieten	-8609
ertain	-8610
gefähr	-8611
izient	-8612
ording	-8613
phones	-8614
verter	-8615
▁Anton	-8616
▁Build	-8617
▁Creat	-8618
▁Cross	-8619
▁Datum	-8620
▁Deine	-8621
▁Folge	-8622
▁Kunde	-8623
▁Langu	-8624
▁Magaz	-8625
▁Queen	-8626
▁began	-8627
▁heißt	-8628
▁south	-8629
▁woman	-8630
▁zugän	-8631
anlagen	-8632
greifen	-8633
hältnis	-8634
obility	-8635
▁Morgen	-8636
▁Screen	-8637
▁Städte	-8638
▁Welche	-8639
▁Zwecke	-8640
▁credit	-8641
▁dining	-8642
▁favour	-8643
▁larger	-8644
▁meinen	-8645
▁memory	-8646
▁perman	-8647
▁possib	-8648
▁skills	-8649
▁stabil	-8650
▁values	-8651
ibliothe	-8652
▁Connect	-8653
▁Firefox	-8654
▁Freunde	-8655
▁Toshiba	-8656
▁applied	-8657
▁einigen	-8658
▁erleben	-8659
▁produce	-8660
▁promote	-8661
▁release	-8662
▁society	-8663
ikationen	-8664
schließen	-8665
wirkungen	-8666
▁Anspruch	-8667
▁Gespräch	-8668
▁Methoden	-8669
▁Projekte	-8670
▁Verkehrs	-8671
▁interior	-8672
▁Nachricht	-8673
▁dedicated	-8674
▁departure	-8675
▁depending	-8676
▁languages	-8677
▁supported	-8678
▁weiterhin	-8679
▁Übernacht	-8680
▁Königreich	-8681
▁connecting	-8682
▁wirtschaft	-8683
▁competition	-8684
▁possibility	-8685
▁organization	-8686
NS	-8687
nd	-8688
sm	-8689
aux	-8690
col	-8691
hem	-8692
typ	-8693
uum	-8694
▁DC	-8695
▁fo	-8696
Bahn	-8697
agon	-8698
cles	-8699
heet	-8700
hein	-8701
ingt	-8702
ißen	-8703
last	-8704
show	-8705
unes	-8706
unst	-8707
usch	-8708
ätig	-8709
▁Hom	-8710
▁Roh	-8711
▁lab	-8712
▁lit	-8713
enken	-8714
nthet	-8715
print	-8716
uters	-8717
venue	-8718
▁Erst	-8719
▁Näch	-8720
▁Turn	-8721
▁Wald	-8722
▁pock	-8723
▁prot	-8724
Script	-8725
ailing	-8726
allery	-8727
gliche	-8728
vollen	-8729
▁Dubai	-8730
▁Satur	-8731
▁Tools	-8732
▁avoid	-8733
▁broad	-8734
▁cabin	-8735
▁fight	-8736
▁gemüt	-8737
▁ihres	-8738
▁shown	-8739
ustries	-8740
▁Bedürf	-8741
▁Einige	-8742
▁Ereign	-8743
▁Models	-8744
▁Moment	-8745
▁Policy	-8746
▁Square	-8747
▁Wunsch	-8748
▁errors	-8749
▁luxury	-8750
▁sorgen	-8751
▁würden	-8752
▁Öffnen	-8753
▁Angeles	-8754
▁Handels	-8755
▁Hydraul	-8756
▁Working	-8757
▁convert	-8758
▁konnten	-8759
▁thought	-8760
istischen	-8761
leistungs	-8762
leuchtung	-8763
▁Festival	-8764
▁Register	-8765
▁beachten	-8766
▁consists	-8767
▁numerous	-8768
▁strength	-8769
▁umfassen	-8770
▁apartments	-8771
▁entspricht	-8772
▁Ausstellung	-8773
▁Investition	-8774
▁Mitgliedsta	-8775
▁Manufacturers	-8776
37	-8777
44	-8778
GH	-8779
HE	-8780
SE	-8781
SP	-8782
TA	-8783
sa	-8784
Der	-8785
Ger	-8786
det	-8787
ikt	-8788
oma	-8789
oop	-8790
wig	-8791
ähn	-8792
▁00	-8793
▁8.	-8794
▁AV	-8795
▁CR	-8796
▁ER	-8797
chem	-8798
eler	-8799
isco	-8800
izer	-8801
jack	-8802
ohnt	-8803
pass	-8804
ächt	-8805
äten	-8806
ößen	-8807
▁(18	-8808
▁Amb	-8809
▁Cup	-8810
▁Div	-8811
▁FAQ	-8812
▁Kab	-8813
▁Pot	-8814
▁Yes	-8815
▁bud	-8816
▁fas	-8817
▁hon	-8818
▁wan	-8819
eline	-8820
folge	-8821
konom	-8822
ronom	-8823
sucht	-8824
uffet	-8825
usted	-8826
▁Aben	-8827
▁Dreh	-8828
▁Fair	-8829
▁Iron	-8830
▁Kong	-8831
▁Line	-8832
▁Phys	-8833
▁Prov	-8834
▁bess	-8835
▁cold	-8836
▁disk	-8837
▁eyes	-8838
icious	-8839
ooting	-8840
weight	-8841
▁Apart	-8842
▁Cover	-8843
▁Drive	-8844
▁Fisch	-8845
▁Hafen	-8846
▁Keine	-8847
▁Kreuz	-8848
▁Metal	-8849
▁Order	-8850
▁Stell	-8851
▁Visit	-8852
▁lands	-8853
▁stets	-8854
▁stone	-8855
cycling	-8856
isition	-8857
lichten	-8858
mittelt	-8859
station	-8860
▁Africa	-8861
▁Anlage	-8862
▁Himmel	-8863
▁Hostel	-8864
▁Robert	-8865
▁aspect	-8866
▁bright	-8867
▁former	-8868
▁nächst	-8869
▁sensor	-8870
herlands	-8871
ikations	-8872
inations	-8873
mosphäre	-8874
ücksicht	-8875
▁Medical	-8876
▁Montage	-8877
▁Organis	-8878
▁Profile	-8879
▁aktuell	-8880
▁allowed	-8881
▁anderem	-8882
▁atmosph	-8883
▁erklärt	-8884
▁fashion	-8885
▁gesehen	-8886
▁meaning	-8887
bereitung	-8888
forderung	-8889
gredients	-8890
▁Bathroom	-8891
▁Einkaufs	-8892
▁Schreibt	-8893
▁Shipping	-8894
▁internal	-8895
▁reliable	-8896
▁Administr	-8897
▁Executive	-8898
▁Geschmack	-8899
▁Patienten	-8900
▁direction	-8901
▁insurance	-8902
▁protected	-8903
▁Heidelberg	-8904
▁Smartphone	-8905
▁allerdings	-8906
▁associated	-8907
▁comprehens	-8908
▁resolution	-8909
▁zahlreiche	-8910
▁Änderungen	-8911
▁beschrieben	-8912
▁measurement	-8913
▁surrounding	-8914
▁manufacturing	-8915
6.	-8916
:5	-8917
FR	-8918
GE	-8919
Me	-8920
äg	-8921
PDF	-8922
abs	-8923
aya	-8924
kap	-8925
ois	-8926
uxe	-8927
▁DM	-8928
▁Ib	-8929
▁ON	-8930
▁li	-8931
aign	-8932
iell	-8933
lapp	-8934
lare	-8935
otal	-8936
quir	-8937
ship	-8938
▁130	-8939
▁Bor	-8940
▁Doc	-8941
▁Sem	-8942
▁Vom	-8943
▁bem	-8944
▁leb	-8945
Point	-8946
durch	-8947
haupt	-8948
igend	-8949
owers	-8950
schau	-8951
ungss	-8952
weder	-8953
▁Arts	-8954
▁Mary	-8955
▁Once	-8956
▁Prop	-8957
▁Requ	-8958
▁Vent	-8959
▁bere	-8960
▁ging	-8961
▁goal	-8962
▁goes	-8963
▁klar	-8964
▁ober	-8965
▁prin	-8966
▁trav	-8967
▁uner	-8968
ipedia	-8969
jekten	-8970
liefer	-8971
▁Broad	-8972
▁Found	-8973
▁Viele	-8974
▁brown	-8975
▁doesn	-8976
▁occas	-8977
▁shops	-8978
▁übers	-8979
ertifik	-8980
fordern	-8981
jährige	-8982
platten	-8983
tension	-8984
ystemen	-8985
▁Aufbau	-8986
▁Canada	-8987
▁Laptop	-8988
▁Monate	-8989
▁Papier	-8990
▁announ	-8991
▁attach	-8992
▁bisher	-8993
▁brands	-8994
▁closed	-8995
▁dauert	-8996
▁finanz	-8997
▁opened	-8998
▁rechts	-8999
▁shared	-9000
menities	-9001
▁History	-9002
▁Tochter	-9003
▁believe	-9004
▁initial	-9005
▁Experten	-9006
▁ausdrück	-9007
▁erkennen	-9008
▁exercise	-9009
▁hochwert	-9010
▁password	-9011
▁practice	-9012
▁schaffen	-9013
▁Präsident	-9014
▁Wikipedia	-9015
▁certified	-9016
▁leistungs	-9017
▁Industrial	-9018
▁Interessen	-9019
▁Startseite	-9020
▁generation	-9021
▁registered	-9022
▁Billigflüge	-9023
▁Erfahrungen	-9024
▁destination	-9025
▁entsprechend	-9026
▁accommodations	-9027
▁implementation	-9028
▁sicherzustellen	-9029
3.	-9030
DA	-9031
He	-9032
do	-9033
ds	-9034
eu	-9035
üb	-9036
201	-9037
600	-9038
apy	-9039
oda	-9040
pal	-9041
run	-9042
sie	-9043
sur	-9044
zep	-9045
üßt	-9046
▁("	-9047
▁39	-9048
▁CS	-9049
▁GD	-9050
▁SW	-9051
▁XL	-9052
afft	-9053
inem	-9054
inks	-9055
länd	-9056
mach	-9057
nach	-9058
netz	-9059
obby	-9060
uste	-9061
▁Pak	-9062
▁URL	-9063
▁Var	-9064
embly	-9065
iform	-9066
klass	-9067
liste	-9068
riere	-9069
weite	-9070
▁Burg	-9071
▁Chic	-9072
▁Cool	-9073
▁Gate	-9074
▁Halb	-9075
▁Info	-9076
▁Kern	-9077
▁Ring	-9078
▁Zahn	-9079
▁crit	-9080
▁gain	-9081
▁mitt	-9082
▁west	-9083
fohlen	-9084
förder	-9085
schuhe	-9086
▁Handt	-9087
▁Sicht	-9088
▁Sonnt	-9089
▁hätte	-9090
▁mobil	-9091
▁occur	-9092
▁reich	-9093
▁sieht	-9094
▁tolle	-9095
▁weder	-9096
bietern	-9097
chester	-9098
füllung	-9099
iendung	-9100
ivalent	-9101
partner	-9102
ructure	-9103
schrift	-9104
▁Aktual	-9105
▁Eltern	-9106
▁Varian	-9107
▁assist	-9108
▁colors	-9109
▁fahren	-9110
▁länger	-9111
▁matter	-9112
▁voraus	-9113
▁worked	-9114
ichtiger	-9115
▁Academy	-9116
▁Fashion	-9117
▁Gewicht	-9118
▁Hinweis	-9119
▁Utility	-9120
▁Zustand	-9121
▁arrange	-9122
▁cuisine	-9123
▁influen	-9124
▁mittels	-9125
▁nothing	-9126
▁Features	-9127
▁Institut	-9128
▁everyday	-9129
▁provider	-9130
▁sprechen	-9131
verschluss	-9132
▁Flachbild	-9133
▁WordPress	-9134
▁delivered	-9135
▁extremely	-9136
▁inklusive	-9137
▁suppliers	-9138
▁correspond	-9139
▁Gelegenheit	-9140
▁hergestellt	-9141
▁hochwertige	-9142
▁manufacture	-9143
▁präsentiert	-9144
▁Manufacturer	-9145
▁environmental	-9146
AA	-9147
HS	-9148
Up	-9149
XX	-9150
oß	-9151
xy	-9152
hus	-9153
las	-9154
zil	-9155
zin	-9156
▁CC	-9157
▁UV	-9158
Book	-9159
abet	-9160
code	-9161
dens	-9162
hard	-9163
ione	-9164
itär	-9165
kurs	-9166
uine	-9167
ulen	-9168
ußen	-9169
zehn	-9170
▁Ask	-9171
▁Ern	-9172
▁Len	-9173
▁Lum	-9174
▁Rar	-9175
▁Rio	-9176
▁Wal	-9177
▁max	-9178
angel	-9179
chron	-9180
crete	-9181
field	-9182
oster	-9183
räfte	-9184
upper	-9185
uster	-9186
ängen	-9187
▁2002	-9188
▁Call	-9189
▁Diam	-9190
▁Easy	-9191
▁Ganz	-9192
▁Gong	-9193
▁Haft	-9194
▁Jobs	-9195
▁Nahr	-9196
▁Resp	-9197
▁Sind	-9198
▁Ware	-9199
▁anti	-9200
▁core	-9201
▁eure	-9202
▁fans	-9203
▁grün	-9204
▁lies	-9205
▁scen	-9206
artige	-9207
barung	-9208
ierend	-9209
ologne	-9210
▁Handy	-9211
▁Misch	-9212
▁Paper	-9213
▁Place	-9214
▁colle	-9215
▁limit	-9216
▁meist	-9217
▁urban	-9218
▁zeich	-9219
ithilfe	-9220
merksam	-9221
prochen	-9222
▁Bedarf	-9223
▁Gebiet	-9224
▁Shower	-9225
▁Tarife	-9226
▁Vertra	-9227
▁Wissen	-9228
▁advice	-9229
▁attack	-9230
▁behand	-9231
▁denken	-9232
▁likely	-9233
▁module	-9234
▁pieces	-9235
▁useful	-9236
aufnahme	-9237
zunehmen	-9238
▁Bangkok	-9239
▁Classic	-9240
▁Einfach	-9241
▁anderer	-9242
▁balcony	-9243
▁mention	-9244
▁traffic	-9245
▁wenigen	-9246
▁Graphics	-9247
▁Spritzen	-9248
▁Zeitraum	-9249
▁feedback	-9250
▁involved	-9251
▁konzentr	-9252
▁movement	-9253
▁optional	-9254
▁prepared	-9255
▁spacious	-9256
▁Regierung	-9257
▁extensive	-9258
▁procedure	-9259
▁reference	-9260
▁Ferienhaus	-9261
▁Generation	-9262
▁Innovation	-9263
▁atmosphere	-9264
▁zusätzlich	-9265
▁Netherlands	-9266
▁alternative	-9267
▁sustainable	-9268
▁Lebensmittel	-9269
▁Schreibtisch	-9270
▁contemporary	-9271
ACK	-9272
Art	-9273
ITY	-9274
bur	-9275
hai	-9276
iza	-9277
▁7,	-9278
▁97	-9279
▁FL	-9280
▁SB	-9281
...]	-9282
apie	-9283
atum	-9284
gart	-9285
iana	-9286
info	-9287
made	-9288
real	-9289
rist	-9290
yles	-9291
▁000	-9292
▁1.2	-9293
▁20.	-9294
▁Cru	-9295
▁Dal	-9296
▁Sar	-9297
▁Tee	-9298
▁bur	-9299
▁jud	-9300
▁pen	-9301
▁thr	-9302
▁wor	-9303
Shirt	-9304
alyse	-9305
ampag	-9306
einst	-9307
emale	-9308
endar	-9309
enses	-9310
estic	-9311
fault	-9312
hause	-9313
losen	-9314
orben	-9315
owder	-9316
plate	-9317
▁Boot	-9318
▁Dazu	-9319
▁EURO	-9320
▁Jung	-9321
▁Publ	-9322
▁edge	-9323
▁hear	-9324
▁idea	-9325
▁lack	-9326
▁lost	-9327
▁rear	-9328
ameras	-9329
chseln	-9330
iences	-9331
melden	-9332
punkte	-9333
stelle	-9334
▁Alles	-9335
▁Below	-9336
▁Mikro	-9337
▁Relig	-9338
▁Rooms	-9339
▁Sales	-9340
▁error	-9341
▁faith	-9342
▁falls	-9343
▁fruit	-9344
gelegen	-9345
wachung	-9346
▁Active	-9347
▁Galaxy	-9348
▁Schule	-9349
▁Stunde	-9350
▁Suites	-9351
▁antiqu	-9352
▁artist	-9353
▁assess	-9354
▁cotton	-9355
▁eingeb	-9356
friendly	-9357
idential	-9358
ulations	-9359
▁Ausgang	-9360
▁Heizung	-9361
▁Individ	-9362
▁covered	-9363
▁enables	-9364
▁healthy	-9365
▁updated	-9366
▁walking	-9367
▁Aussicht	-9368
▁Beiträge	-9369
▁Republik	-9370
▁absolute	-9371
▁channels	-9372
▁handling	-9373
▁neuesten	-9374
▁printing	-9375
▁Charakter	-9376
▁Lieferant	-9377
▁completed	-9378
▁wonderful	-9379
▁Leistungen	-9380
▁Oberfläche	-9381
▁bearbeiten	-9382
▁überprüfen	-9383
▁Entscheidung	-9384
▁eingerichtet	-9385
▁möglicherweise	-9386
Gr	-9387
Or	-9388
Qu	-9389
Se	-9390
TP	-9391
Bay	-9392
INE	-9393
exe	-9394
uhr	-9395
▁47	-9396
▁BE	-9397
▁CF	-9398
▁Kh	-9399
▁Är	-9400
adel	-9401
falt	-9402
glas	-9403
grün	-9404
orca	-9405
oria	-9406
pret	-9407
rang	-9408
reis	-9409
wing	-9410
äsch	-9411
▁(19	-9412
▁360	-9413
▁AMD	-9414
▁Cro	-9415
▁Emb	-9416
▁Esp	-9417
▁Fan	-9418
▁Fet	-9419
▁Ken	-9420
▁Law	-9421
▁bow	-9422
▁cra	-9423
▁sus	-9424
abled	-9425
azing	-9426
burgh	-9427
ector	-9428
ergie	-9429
ffene	-9430
icies	-9431
itage	-9432
ochen	-9433
ronik	-9434
wanne	-9435
▁Arab	-9436
▁Heil	-9437
▁Host	-9438
▁Jede	-9439
▁Kurs	-9440
▁Orte	-9441
▁Soft	-9442
▁Take	-9443
▁Vict	-9444
▁Virt	-9445
▁fall	-9446
▁jähr	-9447
▁lamp	-9448
azität	-9449
mented	-9450
▁Dynam	-9451
▁Franc	-9452
▁Haben	-9453
▁Ideen	-9454
▁Image	-9455
▁Jeder	-9456
▁Kleid	-9457
▁Point	-9458
▁Roman	-9459
▁Solar	-9460
▁Sonne	-9461
▁audio	-9462
▁auszu	-9463
▁grund	-9464
▁multi	-9465
▁paint	-9466
clusive	-9467
gruppen	-9468
liefert	-9469
▁Create	-9470
▁Govern	-9471
▁Junior	-9472
▁Luxury	-9473
▁Russia	-9474
▁Schwer	-9475
▁Tablet	-9476
▁Titels	-9477
▁Valley	-9478
▁prüfen	-9479
▁recent	-9480
▁smooth	-9481
▁street	-9482
ausgaben	-9483
erschaft	-9484
funktion	-9485
▁Meeting	-9486
▁drivers	-9487
▁genannt	-9488
▁könnten	-9489
▁minimum	-9490
▁nachdem	-9491
▁remains	-9492
▁starten	-9493
▁treffen	-9494
▁Anzeigen	-9495
▁Bevölker	-9496
▁Category	-9497
▁Director	-9498
▁Hochzeit	-9499
▁collabor	-9500
▁employee	-9501
▁schützen	-9502
ergebnisse	-9503
ikanischen	-9504
▁auswählen	-9505
▁buildings	-9506
▁processed	-9507
▁investment	-9508
▁Alternative	-9509
▁Application	-9510
▁Integration	-9511
▁allgemeinen	-9512
▁intelligent	-9513
▁anschließend	-9514
▁zusätzlichen	-9515
▁Accommodation	-9516
▁internationale	-9517
.[	-9518
EE	-9519
KS	-9520
MI	-9521
OV	-9522
zi	-9523
-11	-9524
.11	-9525
AND	-9526
Aut	-9527
Res	-9528
hle	-9529
una	-9530
vas	-9531
▁06	-9532
▁4:	-9533
▁BB	-9534
▁FC	-9535
▁mi	-9536
Cont	-9537
Port	-9538
Show	-9539
Vers	-9540
agog	-9541
ikes	-9542
izen	-9543
ofen	-9544
oral	-9545
rick	-9546
stat	-9547
wear	-9548
▁24-	-9549
▁Hon	-9550
▁Sof	-9551
▁Win	-9552
▁rap	-9553
Daten	-9554
agers	-9555
cking	-9556
eiter	-9557
gänge	-9558
night	-9559
orrow	-9560
riers	-9561
▁Grad	-9562
▁Heim	-9563
▁Händ	-9564
▁Kart	-9565
▁bars	-9566
▁bran	-9567
▁fran	-9568
▁huge	-9569
▁sets	-9570
▁ship	-9571
▁spot	-9572
▁tats	-9573
▁verg	-9574
ansion	-9575
nitten	-9576
ordnet	-9577
oulder	-9578
posten	-9579
rechte	-9580
schech	-9581
▁Bewer	-9582
▁Canon	-9583
▁Ebene	-9584
▁Enjoy	-9585
▁Haart	-9586
▁Islam	-9587
▁Krank	-9588
▁Länge	-9589
▁Stutt	-9590
▁Tours	-9591
▁guter	-9592
▁names	-9593
▁pharm	-9594
▁shape	-9595
▁spend	-9596
▁trägt	-9597
▁upper	-9598
geladen	-9599
▁Beginn	-9600
▁Images	-9601
▁ausger	-9602
▁bilden	-9603
▁finish	-9604
▁floors	-9605
▁gesagt	-9606
▁golden	-9607
▁größte	-9608
▁irgend	-9609
▁mensch	-9610
▁reicht	-9611
▁routes	-9612
▁Consult	-9613
▁Russian	-9614
▁Schaden	-9615
▁Systeme	-9616
▁Tabelle	-9617
▁animals	-9618
▁colours	-9619
▁komplex	-9620
▁lokalen	-9621
▁organic	-9622
▁package	-9623
▁Exchange	-9624
▁Formular	-9625
▁Geschäft	-9626
▁Salzburg	-9627
▁Wachstum	-9628
▁favorite	-9629
▁remember	-9630
▁stations	-9631
▁ungefähr	-9632
▁ähnliche	-9633
▁Untersuch	-9634
▁angesehen	-9635
▁empfohlen	-9636
▁expertise	-9637
▁insgesamt	-9638
▁notwendig	-9639
▁schreiben	-9640
▁telephone	-9641
ausstattung	-9642
▁Atmosphäre	-9643
▁Technische	-9644
▁historical	-9645
▁Oberflächen	-9646
▁kostenlosen	-9647
▁regulations	-9648
▁Informations	-9649
▁Technologien	-9650
▁Veranstaltungen	-9651
,"	-9652
85	-9653
ML	-9654
hü	-9655
——	-9656
Ber	-9657
ERN	-9658
Pal	-9659
ero	-9660
iny	-9661
lse	-9662
pel	-9663
ret	-9664
rig	-9665
van	-9666
zul	-9667
ämt	-9668
▁Bä	-9669
▁Li	-9670
▁Mi	-9671
▁Na	-9672
brid	-9673
like	-9674
pite	-9675
ryst	-9676
ympt	-9677
ährt	-9678
ücht	-9679
▁12.	-9680
▁18.	-9681
▁Att	-9682
▁FOR	-9683
▁Lis	-9684
▁Non	-9685
▁Ped	-9686
▁Pix	-9687
▁Por	-9688
▁cer	-9689
▁tim	-9690
▁van	-9691
chter	-9692
cious	-9693
iance	-9694
icine	-9695
icing	-9696
izing	-9697
point	-9698
posal	-9699
rogen	-9700
rufen	-9701
unday	-9702
zeugt	-9703
▁ASUS	-9704
▁Hong	-9705
▁Item	-9706
▁Serv	-9707
▁Stär	-9708
▁Verd	-9709
▁Warn	-9710
▁Wass	-9711
▁bald	-9712
▁capt	-9713
▁lift	-9714
▁vari	-9715
bewahr	-9716
elbett	-9717
etimes	-9718
iziert	-9719
stands	-9720
usalem	-9721
utigen	-9722
ördert	-9723
▁Carol	-9724
▁Ether	-9725
▁Favor	-9726
▁Grill	-9727
▁Luxus	-9728
▁Messe	-9729
▁Tipps	-9730
▁breat	-9731
▁dates	-9732
▁relig	-9733
▁schle	-9734
cluding	-9735
paratur	-9736
▁Friday	-9737
▁Gründe	-9738
▁Staats	-9739
▁Vertre	-9740
▁entsch	-9741
▁launch	-9742
▁observ	-9743
▁wenden	-9744
abilität	-9745
schutzer	-9746
▁Anzeige	-9747
▁Cologne	-9748
▁Frieden	-9749
▁Philipp	-9750
▁Samstag	-9751
▁Society	-9752
▁anderes	-9753
▁context	-9754
▁ensures	-9755
▁experts	-9756
▁helpful	-9757
▁leaders	-9758
▁pattern	-9759
▁privacy	-9760
abilities	-9761
ictionary	-9762
ologische	-9763
▁Hardware	-9764
▁Passwort	-9765
▁Shopping	-9766
▁Websites	-9767
▁beschäft	-9768
▁entweder	-9769
▁families	-9770
▁finished	-9771
▁genommen	-9772
▁hardware	-9773
▁kontroll	-9774
▁released	-9775
▁wireless	-9776
▁Raritäten	-9777
▁Stockholm	-9778
▁besondere	-9779
▁entstehen	-9780
▁genannten	-9781
▁satellite	-9782
▁stainless	-9783
▁verlassen	-9784
▁versuchen	-9785
▁Bildschirm	-9786
▁Landschaft	-9787
▁Restposten	-9788
▁Washington	-9789
▁evaluation	-9790
▁operations	-9791
▁respective	-9792
▁persönliche	-9793
▁Kontaktieren	-9794
▁Internetseite	-9795
▁comprehensive	-9796
▁functionality	-9797
▁opportunities	-9798
geschwindigkeit	-9799
▁Preisvergleich	-9800
▁characteristics	-9801
);	-9802
-)	-9803
72	-9804
:0	-9805
PT	-9806
COM	-9807
Mon	-9808
Spe	-9809
aka	-9810
aks	-9811
bra	-9812
ili	-9813
maß	-9814
pth	-9815
roh	-9816
äle	-9817
▁BR	-9818
▁Ku	-9819
▁Ri	-9820
amet	-9821
ayer	-9822
ftig	-9823
gere	-9824
ifts	-9825
osed	-9826
rast	-9827
zech	-9828
ähle	-9829
▁13.	-9830
▁15-	-9831
▁800	-9832
▁Ath	-9833
▁Ban	-9834
▁Fak	-9835
▁Han	-9836
▁Jos	-9837
▁Sen	-9838
▁Tru	-9839
▁bad	-9840
▁cat	-9841
▁erb	-9842
▁ern	-9843
▁sod	-9844
▁süd	-9845
▁win	-9846
auten	-9847
cedes	-9848
haben	-9849
hörer	-9850
ränke	-9851
strom	-9852
tritt	-9853
ugang	-9854
waren	-9855
▁1998	-9856
▁Acer	-9857
▁Cond	-9858
▁Letz	-9859
▁Mahl	-9860
▁Very	-9861
▁Wege	-9862
▁amer	-9863
▁anal	-9864
▁copy	-9865
▁eher	-9866
▁fuel	-9867
▁schl	-9868
▁seek	-9869
▁valu	-9870
cluded	-9871
gebiet	-9872
haltet	-9873
handel	-9874
ktiven	-9875
leitet	-9876
linder	-9877
rennen	-9878
ughter	-9879
utzung	-9880
▁Defin	-9881
▁Extra	-9882
▁Fluss	-9883
▁Freit	-9884
▁Ideal	-9885
▁Kennt	-9886
▁Louis	-9887
▁Maria	-9888
▁Monte	-9889
▁Quart	-9890
▁Vista	-9891
▁[...]	-9892
▁	-9893
e	-9894
n	-9895
i	-9896
t	-9897
r	-9898
a	-9899
s	-9900
o	-9901
l	-9902
h	-9903
d	-9904
u	-9905
c	-9906
m	-9907
g	-9908
f	-9909
b	-9910
p	-9911
w	-9912
,	-9913
.	-9914
k	-9915
v	-9916
y	-9917
S	-9918
z	-9919
A	-9920
-	-9921
D	-9922
T	-9923
B	-9924
M	-9925
P	-9926
E	-9927
ü	-9928
I	-9929
0	-9930
F	-9931
C	-9932
1	-9933
W	-9934
R	-9935
H	-9936
G	-9937
ä	-9938
L	-9939
2	-9940
K	-9941
N	-9942
V	-9943
:	-9944
O	-9945
x	-9946
U	-9947
ö	-9948
)	-9949
(	-9950
3	-9951
5	-9952
4	-9953
Z	-9954
9	-9955
j	-9956
J	-9957
6	-9958
8	-9959
7	-9960
ß	-9961
/	-9962
q	-9963
"	-9964
Y	-9965
'	-9966
?	-9967
–	-9968
!	-9969
“	-9970
X	-9971
&	-9972
’	-9973
;	-9974
Q	-9975
%	-9976
|	-9977
„	-9978
”	-9979
Ü	-9980
[	-9981
]	-9982
+	-9983
Ö	-9984
€	-9985
é	-9986
®	-9987
*	-9988
>	-9989
#	-9990
»	-9991
Ä	-9992
$	-9993
•	-9994
—	-9995
